{"version":"1.0","truncation":null,"padding":null,"added_tokens":[{"id":0,"content":"[UNK]","single_word":false,"lstrip":false,"rstrip":false,"normalized":false,"special":true}],"normalizer":null,"pre_tokenizer":null,"post_processor":null,"decoder":null,"model":{"type":"BPE","dropout":null,"unk_token":"[UNK]","continuing_subword_prefix":null,"end_of_word_suffix":null,"fuse_unk":false,"byte_fallback":false,"ignore_merges":false,"vocab":{"[UNK]":0,"\n":1," ":2,"!":3,"\"":4,"#":5,"$":6,"%":7,"&":8,"'":9,"(":10,")":11,"*":12,"+":13,",":14,"-":15,".":16,"/":17,"0":18,"1":19,"2":20,"3":21,"4":22,"5":23,"6":24,"7":25,"8":26,"9":27,":":28,";":29,"<":30,"=":31,">":32,"?":33,"@":34,"A":35,"B":36,"C":37,"D":38,"E":39,"F":40,"G":41,"H":42,"I":43,"J":44,"K":45,"L":46,"M":47,"N":48,"O":49,"P":50,"Q":51,"R":52,"S":53,"T":54,"U":55,"V":56,"W":57,"X":58,"Y":59,"Z":60,"[":61,"\\":62,"]":63,"^":64,"_":65,"`":66,"a":67,"b":68,"c":69,"d":70,"e":71,"f":72,"g":73,"h":74,"i":75,"j":76,"k":77,"l":78,"m":79,"n":80,"o":81,"p":82,"q":83,"r":84,"s":85,"t":86,"u":87,"v":88,"w":89,"x":90,"y":91,"z":92,"{":93,"|":94,"}":95,"~":96,"—":97,"’":98,"“":99,"”":100,"e ":101,"th":102,"t ":103,"d ":104,"in":105,"on":106,"s ":107," th":108,"te":109,"or":110,"an":111,"re":112,"ou":113,"en":114," the ":115,"-0":116,"es":117,"er":118,"ing":119,"is ":120,". ":121,"o ":122,"for":123,"as":124,"ar":125,".\n":126,"ed ":127,"y ":128,"el":129,"ing ":130,": ":131,"a ":132,"om":133,"ti":134,"pl":135,"P1":136,"the ":137,"et":138,"is":139,"P1A":140,"and ":141,"l ":142,"ac":143,"20":144,", ":145,"ma":146,"on ":147,"N1":148,"no":149,"wi":150,"to ":151,"k ":152,"ce ":153,"Th":154,"for ":155,"P1A-0":156,"N2":157,"qu":158,"Re":159,"ri":160,"you":161,"-N2":162,"-N220":163,"ay":164,"; ":165,"su":166,"10":167,"ly ":168,"ed":169,"at ":170,"ro":171,"ques":172,"e th":173,"t b":174,"with":175,"ur":176,"ex":177,"tem":178,"con":179,"me":180,"pli":181,"sup":182,"fr":183,"er ":184,"ten":185,"ly":186,"e this ":187,"plied ":188,"supplied ":189,"sen":190,"tex":191,"cl":192,"MA":193,"day":194,"sw":195,"ted ":196,"reques":197,"[N1":198,"[N110":199,"tion ":200,"answ":201,"The ":202,"ic":203,"you ":204,"out ":205,"al":206,"ec":207,"senten":208,"I ":209,"act":210,"from":211,"h ":212,"one ":213,"ad":214,"us":215,"al ":216,"tas":217,"ol":218,"de ":219,"to":220,"ir":221,"ll ":222,"forma":223,"ab":224,"without ":225,"eting ":226,"lis":227,"et ":228,"ag":229,"as ":230,"only":231,"ent ":232,"ow":233,"si":234,"RA":235,"s in":236,"ent":237,"ng":238,"en ":239,"Eng":240,"urn":241,"lish ":242,"English ":243,"requested ":244,"if":245,"mus":246,"ta":247,"ord":248,"LU":249,"NO":250,"r ":251,". I":252,"it":253,"RI":254,"ase ":255,"f ":256,"sh":257,"tem ":258," this ":259,"] the ":260,".”":261,"iv":262,"e only":263,"op":264,"pro":265,"e: ":266,"\n\n":267,"must b":268,"ld ":269,"d the ":270,"ould ":271,"ra":272,". Re":273,"cis":274,"tion":275,"rec":276,"lab":277," the requested ":278,"m ":279,"w ":280,"P1A-":281,"ON":282,"30":283,"ese ":284," these ":285,"task ":286,"fe":287,"; [N110":288,"lin":289,"Ret":290,"informa":291,"Return":292,"meeting ":293,"nd":294,"note":295,"sentence ":296,"from the ":297,"at":298,"ar ":299,"are":300,"label":301,"age ":302,"will ":303,"answer ":304,"no ":305,"vi":306,"in the ":307,"er. ":308,"raf":309,"AV":310,"O-N220":311,"PAV":312,"PAVO-N220":313,"TH":314,"sp":315,"and":316,"gre":317,"par":318,"MI":319,"was ":320,"read":321,"wh":322,"ew ":323,"Com":324,"day.":325,"ai":326,"Mir":327,".\n\n":328,".\nRe":329,".” ":330,"com":331,"fact":332,"facts":333,"AS":334,"cise ":335,"ong":336,"t: ":337,"elong":338,"ul":339,"e the ":340,"sta":341,"Nor":342,"det":343,"detai":344," ex":345,"Pri":346,"Priy":347,"05":348,"ang":349," exact":350,"ess":351,"lu":352,"sentenc":353,"tem P1A-0":354,"le":355,"Ash":356,"WE":357,"me ":358,"or ":359,"os":360,"ver":361,"ad the ":362,"in ":363,"oll":364,"raft ":365,"elong ":366,"ard":367,"P1A-1":368,"9WE":369,"co":370,"MIRA":371,"mess":372,"es ":373,"side ":374,"1J":375,"1JON":376,"lo":377,"el ":378,"7TH":379,"EO":380,"7THEO":381,"di":382,"3LU":383,"IS":384,"Return exact":385,"3LUIS":386,"4NO":387,"4NORA":388,"tw":389,"ren":390,"two ":391,"OMA":392,"OMAR":393,"to this ":394,"gard":395,"detail":396,"ecif":397,"specif":398,"information ":399,"um":400,"ear ":401,"2AS":402,"HA":403,"2ASHA":404,"text":405,"our ":406,"jec":407," is ":408,"not ":409,"bo":410," that ":411,"6P":412,"YA":413,"t is ":414,"RIYA":415,"6PRIYA":416,"text ":417,"ple":418,"ation ":419,"Res":420,"45":421,"ke ":422,"pon":423,"Respon":424,"Respond ":425,"mar":426,"Us":427,"Use only":428,"rac":429,"out":430,"15":431,"fin":432,"pp":433,"feren":434,"cou":435,"s in ":436,"8U":437,"8UMA":438,"must be ":439,"can":440,"kno":441,"ERI":442,"VERI":443,"VERI-N220":444,"ch":445,"MA-N220":446,"LUMA-N220":447,"RU":448,"] ":449,"NORU":450,"NORU-N220":451,"se":452,"line ":453,"statem":454,"sentence: ":455,"statement":456,"2-0":457,"3-0":458,"vent ":459,"to one ":460,"ick":461,"s into one ":462,"sentence without ":463,"labels in ":464,"must be `":465,"line must be `":466,"Lu":467,"word":468,"plac":469,"The":470,"Mira ":471,"E] the ":472,"of ":473,", and ":474,"ing and ":475,"ference ":476,"k. Re":477,"k. Reference ":478,". C":479,"new ":480,"70":481,"context":482,",\n\n":483,"giv":484,"answer. ":485,"ast ":486,"Um":487,"Uma ":488,"parc":489,"ed the ":490,"bjec":491,"plet":492,"ad the supplied ":493,"Giv":494,"ound":495,"must belong ":496,"ei":497,"Wei":498,"to the ":499,"plete this ":500,"prac":501,"tice ":502,"English prac":503,"plete this English prac":504,"tice tas":505,"plete this English practice tas":506,"16":507,"ould you ":508,"Nora ":509,"bound":510,"ollow":511,"bounded ":512,"gh":513,"ut ":514,"Use only the ":515,"Tick":516,"Ticket ":517,"Priya ":518,"Asha ":519,"08":520,"14":521,"Complete this English practice tas":522,"Complete this English practice task. Reference ":523,"ork ":524,"please ":525,"li":526,"wri":527,"writ":528,"t. I":529,"Follow":530,"for you":531," and ":532,"09":533,"mis":534,"tly ":535,"rectly ":536,"directly ":537,"ank ":538,"know":539,"fir":540,"iet ":541,"for i":542,"teri":543,"ful":544,"format. I":545," the requested word":546,"ing and format. I":547,"Follow the requested word":548,"Follow the requested wording and format. I":549,"care":550,"quiet ":551,"fully ":552,"Work ":553,"elow":554,"t below":555,"text below":556,"from the text below":557,". Case ":558,"carefully ":559,"Work carefully ":560,"from the text below. Case ":561,"Work carefully from the text below. Case ":562,", th":563,"'s ":564,"de":565,"wel":566,"English task ":567,"to this bounded ":568,"Respond directly ":569,"English task (":570,"to this bounded English task (":571,"Respond directly to this bounded English task (":572," must belong ":573,"11":574,"Read the supplied ":575,"en answer. ":576,"context, th":577,"Read the supplied context, th":578,"en answer. Ticket ":579,"Read the supplied context, then answer. Ticket ":580,"5OMAR":581,"n ":582,"materi":583,"material ":584,"supplied material ":585,"Use only the supplied material ":586,"Use only the supplied material for i":587,"room":588,"information giv":589,"ercise ":590,"for ex":591,"e only the requested ":592,"answer for ex":593,"Give only the requested ":594,"answer for exercise ":595,"Give only the requested answer for exercise ":596,"boo":597,"Wh":598,"ould you please ":599,"andl":600,"Handl":601,"lang":602,"uage ":603,"e this lang":604,"without out":605,". Ref ":606,"task without out":607,"facts. Ref ":608,"side facts. Ref ":609,"Handle this lang":610,"uage task without out":611,"Handle this language task without out":612,"Handle this language task without outside facts. Ref ":613,"ude ":614,"te ":615,"time ":616,"tion: ":617,"message ":618,"T] ":619,"do":620,"by ":621,"s: ":622,"ed; [N110":623,"old":624,"an ":625,"clos":626,"comm":627,"act ":628,"exact ":629,"t be ":630,". The ":631,"not be ":632,"item":633,"open":634,"cannot be ":635,"information given":636,"cod":637,"once ":638,"e, ":639,"hel":640,"help":641,").\n":642,"noteboo":643,"n from the ":644,"known from the ":645,"cannot be known from the ":646,"cannot be known from the information given":647,"lue ":648,"fold":649,"9WEI":650,"be ":651,"nat":652,"-03":653,"natur":654,"ad ":655,"clas":656,"-06":657,"0MIRA":658," the":659,"-02":660,"note ":661,"t=":662,"t re":663,"-05":664,"would ":665,"und":666,"mall ":667,"under":668,"parcel ":669,"Draft ":670,"ay ":671,"na":672,"from ":673,"class ":674,"Work carefully from the text below. Case P1A-0":675,"en noteboo":676,"lue fold":677,"res":678,"t d":679,"blue fold":680,"and no ":681,"for your ":682,"Handle this language task without outside facts. Ref P1A-0":683,"ed.":684,"me: ":685,"any ":686,"I h":687,"ov":688,"s, ":689,": “":690,"ly two ":691,"Return exactly two ":692,"be":693,"Complete this English practice task. Reference P1A-0":694,"Respond directly to this bounded English task (P1A-0":695,"green noteboo":696,"Thur":697,"Thurs":698,".\nRewrit":699,"in one ":700,"Read the supplied context, then answer. Ticket P1A-0":701,"Give only the requested answer for exercise P1A-0":702,"ste":703,"small ":704,":30":705,"09:30":706,"Follow the requested wording and format. Item P1A-0":707,"only ":708,":20":709,":45":710,"11:45":711,"shor":712,"-04":713,"Use only the supplied material for item P1A-0":714,"nes":715,"14:20":716,":05":717,"? ":718,"s you ":719,"Thank ":720,"16:05":721,"br":722,"Thank you ":723,"miss":724,":15":725,"ere ":726,"e: N1":727,"08:15":728,"missing ":729,"Fri":730,"Mon":731,"answer cannot be known from the information given":732,"s.":733,"Wed":734,"Wednes":735,"quiet room":736,"ont d":737,"front d":738,"front des":739,"Tu":740,"ing missing ":741,"Tues":742,"reci":743,"bject: ":744,".\nReturn exactly two ":745,"orro":746,"omorro":747,"-A":748,"east ":749,"hal":750,"un":751,"east hal":752,"ing are":753,"reading are":754,"for N1":755,"Dear ":756,"tomorro":757,"iz":758,"sion":759,"clar":760,"clear ":761,"ication ":762,"assu":763,"question ":764,"concise ":765,"add":766,"ification ":767,"clarification ":768,"assum":769,"clude ":770,"03":771,"t, ":772,"not in":773,"any detail":774,"draft ":775,"Could you please ":776,"Omar":777,"coun":778,"name: ":779,"count: ":780,"As":781,"ST":782,"revi":783,"tion=":784,"ous ":785,"Luis ":786,"from these ":787,"06":788,"fi":789,"ine the ":790,"Su":791,"er.":792,"order ":793,"Jon":794,"ing any detail":795,"details.":796,"'m ":797,"pol":798,"ary":799,"do ":800,"inste":801,"ession":802,"instead ":803,"ema":804,"il ":805,"email ":806,"2.\n":807,"P1A-10":808," that the ":809,"to.":810,"lef":811,"nonce ":812,"st ":813,"ing informa":814,"a shor":815,"final ":816,"nonce statement":817,"-text ":818,"Mar":819,"Put ":820,"Say":821,"Sum":822,"Turn":823,"`.":824,"` and ":825,"ain":826,"bine the ":827,"dro":828,"dow":829,"ds into one ":830,"ds you ":831,"event ":832,"flu":833,"fession":834,"gic":835,"ied":836,"kdow":837,"n. The ":838,"nclude ":839,"rte":840,"say":841,"e email ":842,"d no ":843,"d line must be `":844," the labels in ":845," the final ":846,"ing; ":847,". Return exact":848,"ason ":849,"elds into one ":850,": [N110":851,"a gre":852,"plain":853,"the se":854,"the event ":855,"and clos":856,", cou":857,"k one ":858,"; do ":859,"with these ":860,"concis":861,"cond line must be `":862,"ly the final ":863,"e this supplied ":864,"e this as ":865,"e this message ":866,"supplied statement":867,"supplied fi":868,"request is ":869,"answer.":870,"The request is ":871,"al, cou":872,"one pro":873,"add no ":874,"al English ":875,"al ord":876,"without comm":877,"eting and clos":878,"ent sentence without ":879,"entary":880,". Include ":881,"ite email ":882,"ope this message ":883," these supplied fi":884,"lines ":885,"Return the labels in ":886,"er. Return the labels in ":887,"Combine the ":888,".\nReason ":889,".” As":890,"facts.":891,"P1A-12-0":892,"P1A-13-0":893,"logic":894,"gards":895,"specified":896,"text in one ":897,"mariz":898,"finds you ":899,"pping any detail":900,"sentence: “":901,"vent an ":902,"s into one concis":903,"sentence without add":904,"labels in logic":905,"of assum":906,"new facts.":907,"first ":908,"well":909,"e, flu":910,"natural English ":911,"underspecified":912,"Draft a shor":913,"class PAVO-N220":914,"and no Mar":915,"I hope this message ":916,"s, “":917,".\nRewrite this as ":918,"only from these ":919,"? Say":920,"answer cannot be known from the information given; do ":921,"ing missing details.":922,"clear sentence: ":923,"question instead ":924,"concise clarification ":925,"t, pol":926,"not invent an ":927,"ous sentence: “":928,"Subject: ":929,"order without comm":930," that the answer cannot be known from the information given; do ":931,"ing information: ":932,"nonce statements: ":933,"-text lines ":934,"Put the event ":935,"Summariz":936,"Turn these supplied fi":937,"` and the se":938,"dropping any detail":939,"fessional, cou":940,"kdown. The ":941,"rteous sentence: “":942,"says, “":943,"ing; add no ":944,". Return exactly the final ":945,"elds into one natural English ":946,"a greeting and clos":947,"plain-text lines ":948,"k one concise clarification ":949,"with these note":950,"e this supplied text in one ":951,"supplied statements into one concis":952,"The request is underspecified":953,"one professional, cou":954,"al order. Return the labels in ":955,"ent sentence without dropping any detail":956,"entary: [N110":957,". Include a greeting and clos":958,"ite email from ":959,"Combine the supplied statements into one concis":960,".\nReason only from these ":961,".” Ask one concise clarification ":962,"finds you well":963,"sentence without adding information: ":964,"labels in logical order. Return the labels in ":965,"of assuming missing details.":966,"first line must be `":967,"e, fluent sentence without dropping any detail":968,"Draft a short, pol":969,"and no Markdown. The ":970,"I hope this message finds you well":971,".\nRewrite this as one professional, cou":972,"? Say that the answer cannot be known from the information given; do ":973,"question instead of assuming missing details.":974,"not invent an answer.":975,"order without commentary: [N110":976,"Put the event labels in logical order. Return the labels in ":977,"Summarize this supplied text in one ":978,"Turn these supplied fields into one natural English ":979,"` and the second line must be `":980,"ing; add no new facts.":981,". Return exactly the final class PAVO-N220":982,"plain-text lines and no Markdown. The ":983,"The request is underspecified: “":984,". Include a greeting and closing; add no new facts.":985,"Combine the supplied statements into one concise, fluent sentence without dropping any detail":986,".\nReason only from these nonce statements: ":987,".” Ask one concise clarification question instead of assuming missing details.":988,"Draft a short, polite email from ":989,".\nRewrite this as one professional, courteous sentence: “":990,"? Say that the answer cannot be known from the information given; do not invent an answer.":991,"Put the event labels in logical order. Return the labels in order without commentary: [N110":992,"Summarize this supplied text in one clear sentence: ":993,"Turn these supplied fields into one natural English sentence without adding information: ":994,"plain-text lines and no Markdown. The first line must be `":995,"Combine the supplied statements into one concise, fluent sentence without dropping any detail: ":996,"very ":997,"mov":998,"ed to ":999,"vis":1000,"provi":1001,"tomorrow":1002,"RE":1003,"ONE] the ":1004,"What ":1005,"04":1006,"8.\n":1007,"Bes":1008,"t regards":1009,"Best regards":1010,"Luis":1011,"placed ":1012,"item: ":1013,"code: N1":1014,"visit":1015,"code: N19":1016,"Theo":1017,"02":1018,"blue folder ":1019,"like ":1020,"I'm ":1021,"re ":1022,"green notebook ":1023,"ing the ":1024,"Om":1025,"Omar ":1026,"9WEI ":1027,"av":1028,"for the ":1029,"Theo ":1030,"Jon ":1031,"cop":1032,"are ":1033," cop":1034,"ter":1035," must belong to.":1036,".\nReturn exactly two plain-text lines and no Markdown. The first line must be `":1037,"4.\n":1038,"with ":1039,"ank":1040,"\n\nDear ":1041,",\n\nI hope this message finds you well":1042,"meet":1043,".\n\nBest regards":1044,"meeting":1045,"tan":1046,"loc":1047," copi":1048,"rou":1049,"ready":1050,"ready ":1051,"6.\n":1052,"edul":1053,"chedul":1054,"would like ":1055," was ":1056,"it is ":1057,"feel ":1058,"ard ":1059,"riv":1060,"small parcel ":1061,"arriv":1062,"what ":1063,"-01":1064,"e that ":1065,"it ":1066,"ts ":1067,"pos":1068,"meet ":1069,"Mira":1070,"will meet ":1071,"messag":1072,"om ":1073,"id":1074,"ppreci":1075,"my ":1076,"rand":1077,"random ":1078,"01":1079,". PAVO-N220":1080,"ind":1081,"gra":1082,"Wei ":1083,"of":1084,"Priya":1085,"inside ":1086,"ne":1087,"N120":1088," them ":1089,".\n\nBest regards,\n\n":1090,"to NORU-N220":1091,"objec":1092,"7.\n":1093,"ask":1094,"'re ":1095,"e a ":1096,"kind":1097,"sor":1098,"Nora":1099,"front desk":1100,"I'm sor":1101,"I'm sorr":1102,"Could you please specif":1103,"end":1104,"sis":1105,"Uma":1106,"opened the ":1107,"would like to ":1108,"up":1109,"garden":1110,".\n\nI ":1111,"3.\n":1112,"about ":1113,"of the ":1114,"sistan":1115,"action=":1116,"; action=":1117,"ed; ":1118,"exp":1119,",\n\nI hope this message finds you well.\n\nI ":1120,"thing ":1121,"seal":1122,"east hall":1123,"day ":1124,"ask ":1125," is a ":1126,"ient":1127,".\n[N110":1128,"?\"":1129,"assistan":1130,"0.\n":1131,"ere":1132,"Asha":1133,"welcom":1134,"wan":1135,"BS":1136,"S-A":1137,"P1S-A":1138,"placed the ":1139,"P1S-ABS":1140,"NE":1141,"ted to ":1142,"ich ":1143,".\n\nThank you ":1144,"1.\n":1145,"reading area":1146,"on Tues":1147,"3LUIS-":1148,"e-":1149,", b":1150,"ext ":1151,"09:30.":1152,"next ":1153,"Thursday":1154,"14:20.":1155,"wanted to ":1156,"vice ":1157,"9WEI-":1158,"9.\n":1159,"N230":1160,"11:45.":1161,"take ":1162," b":1163,"on Wednes":1164,"meeting note ":1165,"Me":1166,"ak":1167,"What exact ":1168,"Meeting ":1169,"provide ":1170,"1JON-":1171,", but ":1172,"Reques":1173,"on Mon":1174,"ks ":1175,"tr":1176,"ed c":1177,"You":1178,"on Fri":1179,"7THEO-":1180,"del":1181,"ce":1182,"du":1183,"ear":1184,"tic":1185,"produ":1186,"08:15.":1187,"our meeting ":1188,"ligh":1189,"device ":1190,"ave ":1191,"produce ":1192,"mor":1193,"request ":1194,"Your ":1195,"am ":1196,"pre":1197,"se ":1198,"in the quiet room":1199,"Request ":1200,"16:05.":1201,"ber ":1202,"provide the ":1203,"ation":1204,"parcel":1205,"ensu":1206,"N210":1207,"every ":1208,"rang":1209,"y the ":1210,"arrang":1211,"gh the ":1212,"rough the ":1213,"AY":1214,"DAY":1215,"a quiet ":1216,"with the ":1217,"DAY|":1218,"a quiet meeting":1219,"ed for ":1220," ready":1221,"num":1222,"wal":1223,"inv":1224,"N130":1225,"review ":1226,"coll":1227,"collec":1228,"e to ":1229,"N18":1230,"por":1231,"schedul":1232,"I can":1233,"en be":1234,"meeting note":1235,"35":1236,"it's ":1237,"Fi":1238,"alu":1239,"number ":1240,"Fix":1241,"RST":1242,"ation: ":1243,"y, but ":1244,"I'm sorry, but ":1245,"I cannot ":1246,"I'm sorry, but I cannot ":1247,"-F":1248,"-L":1249,"-NE":1250,"IRST":1251,"XT] ":1252,"repli":1253,"read the ":1254,"es.":1255,"] the message ":1256,"label ":1257,"AST] ":1258,"message":1259,"-FIRST":1260,"-LAST] ":1261,"-NEXT] ":1262,"read the message":1263,"] the message arriv":1264,"-FIRST] the message arriv":1265,"N70":1266,"make ":1267,"for N170":1268,"\ncount: ":1269,"ven":1270,"insi":1271,"conven":1272,"its ":1273,"` and the second line must be `count: ":1274,"se: ":1275,"ply ":1276,"where":1277,"where?":1278,"need":1279,"last ":1280,"The meeting ":1281,"with these notes: ":1282,"Thursday.":1283,"unc":1284,"\nri":1285,"AR":1286,"DD":1287,"D] the ":1288,"EN":1289,"LE] the ":1290,"T] the ":1291,"x was ":1292,", it is ":1293,"no ex":1294,"MIDD":1295,"was placed ":1296,"was seal":1297,"box was ":1298,"ght=":1299,"opened; [N110":1300,"note was placed ":1301,"parcel was seal":1302,"STAR":1303,"left=":1304,"inside":1305,"\nright=":1306,"D] the parcel was seal":1307,"END] the parcel was seal":1308,"LE] the note was placed ":1309,"T] the box was ":1310,"MIDDLE] the note was placed ":1311,"START] the box was ":1312,"MIDDLE] the note was placed inside":1313,"START] the box was opened; [N110":1314,"Ple":1315,"bring the ":1316,"Please ":1317,"sentences.":1318,"two sentences.":1319," is inside ":1320,"says, “I ":1321,"ts w":1322,"confir":1323,"ice ":1324,"ok":1325,"oice ":1326,"forw":1327,"sion ":1328,"will br":1329,"our meeting to ":1330,"den be":1331,"hin":1332,"hid":1333,"N170":1334,"propos":1335,"in the garden":1336,"closed c":1337,"produce tomorrow":1338,"den behin":1339,"hidden behin":1340,"closed card ":1341,"00":1342,"O] the ":1343,"TW":1344,"has ":1345,"t; [N110":1346,"ally ":1347,"ent out":1348,"THRE":1349,"was loc":1350,"or lef":1351,"or was loc":1352,"E] the ligh":1353,"door was loc":1354,"ONE] the last ":1355,"visitor lef":1356,"ts went out":1357,"O] the door was loc":1358,"TWO] the door was loc":1359,"THREE] the ligh":1360,"ONE] the last visitor lef":1361,"TWO] the door was lock":1362,"THREE] the lights went out":1363,"ONE] the last visitor left; [N110":1364,", with ":1365,"I'm sorry, but I cannot provide the ":1366,"A ":1367,"s:":1368,"tude ":1369," thank ":1370,"titude ":1371,"labeled ":1372,"with these notes:":1373,"gratitude ":1374,"with these notes: thank ":1375,"39":1376,"ee":1377,". Your ":1378,"d the closed card ":1379,"hidden behind the closed card ":1380,"hidden behind the closed card labeled ":1381,"Con":1382,"cum":1383,"pare ":1384,"\ncode: N19":1385,"air":1386,"ther ":1387,"chair":1388,"Follow the requested wording and format. Item ":1389,"` and the second line must be `code: N19":1390,".\nReturn exactly two plain-text lines and no Markdown. The first line must be `item: ":1391,"draf":1392,"mem":1393,"random cod":1394,"25":1395,"reading area ":1396,"moved to ":1397,"-D":1398,"-P":1399,"CT] ":1400,"P] ":1401,"sation ":1402,"tere":1403,"entere":1404,"conver":1405,"d the room":1406,"door":1407,"-ACT] ":1408,"for N16":1409,"REP] ":1410,"ONE] the conver":1411,"opened the door":1412,"-DONE] the conver":1413,"-PREP] ":1414,"sation end":1415,"entered the room":1416,"-DONE] the conversation end":1417,"e our meeting to ":1418,",\n\nI hope this message finds you well.\n\nI wanted to ":1419,"kindly ":1420,"propose a ":1421,"ing to ":1422,"in the reading area":1423,"ait":1424,"im":1425,"st":1426,"wait":1427,"ors ":1428,"The two ":1429,"in the east hall":1430,"visitors ":1431," copies":1432,"waiting ":1433,"The two visitors ":1434,"ew":1435,"s my ":1436," thank":1437,"your ":1438,"ress my ":1439,"review":1440,"express my ":1441," chair":1442,"N20":1443,". I ":1444,"fore ":1445,"text: ":1446,"version ":1447,"No":1448,"dat":1449,"Note":1450,"you're ":1451,"N15":1452,"Every ":1453,"dis":1454,"wee":1455,"I would like to ":1456,"07":1457,"next wee":1458,"reviewed ":1459,"ing them ":1460,"garden ":1461,"east hall ":1462,"propose a meeting ":1463,"yp":1464,"erv":1465,"front desk ":1466,"ain ":1467,"typ":1468,"again ":1469,"once again ":1470,"38":1471,"time":1472,"once again for your ":1473,"36":1474,"48":1475,"Use only the supplied material for item ":1476,"59":1477,"which ":1478,"code ":1479,"would be ":1480,"feel b":1481,"help.":1482,"5OMAR-":1483,"Ti":1484,"appreci":1485,"before ":1486,"thank":1487,"in the front desk":1488,"fu":1489,"y this ":1490,"if the":1491,"choice ":1492,"small parcel":1493,"Sta":1494,"were ":1495,"day. Include a greeting and closing; add no new facts.":1496,"reserv":1497,"mak":1498," must belong to NORU-N220":1499,".\nReturn exactly two plain-text lines and no Markdown. The first line must be `name: ":1500,"To ":1501,"send the ":1502,"thing el":1503,"5.\n":1504," copies ":1505,"next week ":1506,"propose a meeting at ":1507,"37":1508,"on the ":1509,"feel":1510,"state":1511,"docum":1512," belong ":1513,"67":1514,"ef":1515,"em":1516,"will be ":1517,"we ":1518,"ay to ":1519,"okay to ":1520,"will bring them ":1521,"that ":1522,"y what ":1523,"quiet room ":1524,"68":1525,"s to ":1526,"able":1527,"assistance ":1528,"cus":1529,"s and ":1530,"on Tuesday.":1531,"recip":1532," moved to ":1533,"28":1534,"ate":1535,"wor":1536,"19":1537,"err":1538," must belong to the ":1539,"43":1540,"arranged ":1541,"discus":1542,"if this ":1543,"Could you please specify what ":1544,"47":1545,".\n\nThank you once again for your ":1546,"ensur":1547,"loca":1548,"entered the room; [N110":1549,"e and ":1550,"ly appreci":1551,"69":1552,"provid":1553,"ip":1554," by ":1555,"63":1556,"on Wednesday.":1557,"on Friday.":1558,"Appreci":1559,"her ":1560,"great":1561,"I'm sorry, but I cannot provide the exact ":1562,"ter ":1563,"suppor":1564,", and I ":1565," chairs in":1566,"ff":1567,"P1A-11":1568,"29":1569,"od":1570,"reas":1571,"reason":1572,"24":1573,"Ch":1574,"item ":1575,". It ":1576,"detail ":1577,"writing to ":1578,"am writing to ":1579,"gratitude for the ":1580,"Chang":1581,"17":1582,"=help":1583,"eak":1584,"er=":1585,"etter":1586,"for her ":1587,"; reason":1588,"speak":1589,"Turn these supplied fields into one natural English sentence without adding information: speak":1590,"Could you please specify the ":1591,"; action=thank":1592,"ed; recip":1593,"ient=":1594,"Request for ":1595,"for her help.":1596,"; reason=help":1597,"Turn these supplied fields into one natural English sentence without adding information: speaker=":1598,"; action=thanked; recip":1599,"; action=thanked; recipient=":1600,"54":1601,"SDAY|":1602,"tion=the ":1603,"object=":1604,"ful ":1605,"location=the ":1606,"t and ":1607,"or=":1608,"; location=the ":1609,"actor=":1610,"placed; ":1611,"Turn these supplied fields into one natural English sentence without adding information: actor=":1612,"; action=placed; ":1613,"; action=placed; object=":1614,", it's ":1615,"tain":1616," was reviewed ":1617,"42":1618,"e of ":1619,"ant ":1620,"re's ":1621,"ings ":1622,"mat":1623,"55":1624,"18":1625,"58":1626,"inc":1627,"on Monday.":1628,"go":1629,"underst":1630,"day at ":1631,"could ":1632,"have ":1633,"22":1634,"support ":1635,"blue folder":1636,"draft":1637,"34":1638,"cas":1639,"dec":1640,"t the ":1641,"re's an":1642,"got ":1643,"tu":1644,"green notebook":1645,"device N70":1646,"greatly appreci":1647,"32":1648,"65":1649,"ith":1650,"s at ":1651," things ":1652,"is hidden behind the closed card labeled ":1653,"prov":1654,"What exact number ":1655,"forward ":1656,"What exact number is hidden behind the closed card labeled ":1657,"40":1658,"see":1659,"more ":1660,"the":1661,"reschedul":1662,"about tomorrow":1663,"52":1664,"=ready":1665,"=N230":1666,"; day":1667,"; time":1668,"; state":1669,"item=N230":1670,"Turn these supplied fields into one natural English sentence without adding information: item=N230":1671," copies to the ":1672," things for ":1673,"forward to ":1674,"=ready; time":1675,"; day=":1676,"; state=ready; time":1677,"; state=ready; time=":1678,"ted by ":1679," chairs into the ":1680,"26":1681,"ien":1682,"orrec":1683,"to bring the ":1684,". If ":1685,".\n\n\n":1686,"meeting for ":1687,"ared ":1688,"class NORU-N220":1689,"document ":1690,"works ":1691," must belong to the class NORU-N220":1692,"23":1693,"let ":1694,"ased ":1695,"Revi":1696,"tention ":1697,"attention ":1698,"spon":1699,"tru":1700,"them ":1701,"let me ":1702,"Review ":1703,".\"":1704,"s the ":1705,"The item ":1706,"The item N230":1707,"could you please ":1708,"on Thursday.":1709,"e the meeting for ":1710,"time works ":1711,"Friday":1712,"collect ":1713,"t by ":1714,"all ":1715,"partic":1716,"moved ":1717,"ready for ":1718,"49":1719,"mom":1720,"som":1721,"ity":1722,"has the ":1723,"ated":1724,"sponse ":1725,"grou":1726,"ud":1727,"t reac":1728,"group":1729," will ":1730," produce tomorrow":1731,"Hel":1732,"ment":1733,"arrived ":1734,"random code ":1735,"take a ":1736,"What exact random code ":1737,"random code that ":1738," produce tomorrow? Say that the answer cannot be known from the information given; do not invent an answer.":1739,"What exact random code will ":1740,"44":1741,"ice":1742,"moment ":1743,"take a moment ":1744,"27":1745,"33":1746,"20MIRA":1747,"The LUMA-N220":1748,"in LUMA-N220":1749,", and VERI-N220":1750,"from it ":1751,".\nReason only from these nonce statements: The LUMA-N220":1752," is inside VERI-N220":1753,"improv":1754,"reserved the ":1755,"ement ":1756,"group is inside VERI-N220":1757,"better":1758,"know ":1759,"been ":1760,"You ":1761,"greatly appreciated":1762,"let me know ":1763,"66":1764,"agre":1765,"must reac":1766,"shared ":1767,"will collect ":1768,"Please let me know ":1769,"must reach ":1770,"shared at ":1771,"13":1772,"valu":1773,"plan":1774,"The draft ":1775,"arranged them ":1776,"arranged them before ":1777,"w.”":1778,"eration ":1779,", send the ":1780,"now.”":1781,"projec":1782,"specific":1783,"new review ":1784," thanked ":1785,"new review day ":1786," i":1787,"-time ":1788,"5-0":1789,"Cop":1790,"Pre":1791,"upp":1792,"e with ":1793,"ercas":1794,". Fix":1795,"forgot ":1796,"nothing el":1797,"using ":1798,"requested a quiet meeting":1799,"and-time ":1800,"exact upp":1801,".\nRewrite this as one professional, courteous sentence: “You ":1802,"asked for ":1803,"e-and-time ":1804,"a quiet meeting. ":1805,"you're feel":1806,"y this exact upp":1807,"value with ":1808," it by ":1809,"Copy this exact upp":1810,"ercase-and-time ":1811,". Fix it by ":1812,"forgot N18":1813,"nothing else: ":1814,".\nRewrite this as one professional, courteous sentence: “You forgot N18":1815,"asked for a quiet meeting. ":1816,"value with nothing else: ":1817,"Copy this exact uppercase-and-time ":1818,"Copy this exact uppercase-and-time value with nothing else: ":1819," one ":1820,"Correc":1821,"k th":1822,"punc":1823,"so":1824,"sinc":1825,"turn":1826,"through the ":1827,"s and no ":1828,"return":1829,"is a ":1830,"and return":1831,"with exact":1832,"ly these ":1833,"only: ":1834,"sentence only: ":1835,".\nReply ":1836,"or and return":1837,"words and no ":1838,"ks through the ":1839,"walk th":1840,"walks through the ":1841,"ation: N130":1842,"with these notes: ask ":1843,"in the east hall.":1844,"error and return":1845,"e and time ":1846,"t the agre":1847,"tuation: N130":1848,"ement error and return":1849," one sentence only: ":1850,"Correct the agre":1851,"punctuation: N130":1852,"sincere ":1853,"with exactly these ":1854,".\nReply with exactly these ":1855,"words and no punctuation: N130":1856,"walk through the ":1857,"ement error and return one sentence only: ":1858,"Correct the agreement error and return one sentence only: ":1859,".\nReply with exactly these words and no punctuation: N130":1860,"53":1861,"gin":1862,"what":1863,"in the garden.":1864,"56":1865,"57":1866,"fur":1867,"P1S-ABS-0":1868,"Appreciation ":1869,"gins at ":1870,"gen":1871,"The request is underspecified: “Pre":1872,"confirm":1873,"in the reading area.":1874,"ensure that ":1875,"The request is underspecified: “Prepare ":1876,"0-0":1877,"cc":1878,"e.":1879,"le ":1880,"ok ":1881,"made ":1882,"in no ":1883,"45OMAR":1884,"gram":1885,"thing is ":1886,"read the message; [N110":1887,"Acc":1888,"—“":1889,"—wh":1890,"o will meet ":1891,"ing to this ":1892,"om and ":1893,"tim":1894,"ed?":1895,"ording to this ":1896,".”—wh":1897,"e only—“":1898,"whom and ":1899,"context.":1900,"helping ":1901,"message only—“":1902,".\n\nThank you for your ":1903,"replied; [N110":1904,"replied.":1905,"-FIRST] the message arrived.":1906,"some":1907,"will collect it ":1908,"Please let me know if this ":1909,"According to this ":1910,"o will meet whom and ":1911,".”—who will meet whom and ":1912,"According to this message only—“":1913,".”—who will meet whom and where?":1914,"gment":1915,"jud":1916,"kes":1917,"non":1918,"response ":1919,"a mis":1920,"and feel b":1921,", non":1922,"ed.\n[N110":1923,"e than ":1924,"t be":1925,"ad.” ":1926,"al response ":1927,"takes":1928,"lear":1929,"give ":1930,"Give a ":1931,"mistakes":1932,"kind, non":1933,"take and feel b":1934,"more than ":1935,"-FIRST] the message arrived.\n[N110":1936,"says, “I made ":1937,"time works for you":1938,"generation ":1939,"in no more than ":1940,"gmental response ":1941,"judgmental response ":1942,"a mistake and feel b":1943,"ad.” Give a ":1944,"kind, nonjudgmental response ":1945,"says, “I made a mistake and feel b":1946,"in no more than two sentences.":1947,"ad.” Give a kind, nonjudgmental response ":1948,"says, “I made a mistake and feel bad.” Give a kind, nonjudgmental response ":1949,"says, “I made a mistake and feel bad.” Give a kind, nonjudgmental response in no more than two sentences.":1950,"Mak":1951,"a f":1952,"The request is underspecified: “Mak":1953,"updat":1954,"in the quiet room.":1955,"forward to our ":1956,"The request is underspecified: “Make the ":1957,"60":1958,"61":1959,"pec":1960,"te the ":1961,"“The ":1962,"is N120":1963,"aspec":1964,"cont":1965,"listen":1966,"only that ":1967,". It be":1968,".” Sta":1969,"Combine the supplied statements into one concise, fluent sentence without dropping any detail: The meeting ":1970,"object and ":1971,"device N210":1972,"label on the ":1973,"label using ":1974,"its label using ":1975,"Context: ":1976,"further ":1977,"te the object and ":1978,"“The label on the ":1979,"only that context.":1980,". It begins at ":1981,".” State the object and ":1982,"Combine the supplied statements into one concise, fluent sentence without dropping any detail: The meeting is ":1983,"its label using only that context.":1984,"Context: “The label on the ":1985,".” State the object and its label using only that context.":1986,"\nleft=":1987,"31":1988,"62":1989,"6-0":1990,":\nleft=":1991," the sentence ":1992,"es, with ":1993,"o placed ":1994,"a text":1995,"and b":1996,"and give ":1997,"to answer. ":1998," this note ":1999,"lines, with ":2000,"was ready ":2001,".” Wh":2002," is LUMA-N220":2003,"Use only this note ":2004,", and where?":2005,".\nReturn exactly two lines, with ":2006,"P1A-10-0":2007,"it is VERI-N220":2008,"tra text":2009,"ation.\n\nBest regards,\n\n":2010,"Fix the sentence ":2011,", it is VERI-N220":2012,", it is NORU-N220":2013,"no explan":2014,"no extra text":2015,"END] the parcel was sealed; [N110":2016,"END] the parcel was sealed.":2017,"MIDDLE] the note was placed inside.":2018,"MIDDLE] the note was placed inside; [N110":2019,"express my sincere ":2020,"Note: “":2021,"were ready ":2022,"ience":2023,". If it is VERI-N220":2024,"attention to this ":2025,"what, and where?":2026,"thing is LUMA-N220":2027,"something is LUMA-N220":2028,"o placed what, and where?":2029,"and give no explan":2030,"to answer. Note: “":2031,".” Who placed what, and where?":2032,"Use only this note to answer. Note: “":2033,".\nReturn exactly two lines, with no extra text":2034,"Fix the sentence and give no explan":2035,".\nReturn exactly two lines, with no extra text:\nleft=":2036,"Fix the sentence and give no explanation: ":2037," in the ":2038,"Hi":2039,"I’":2040,"Off":2041,"one-":2042,", I’":2043,"on Thursday":2044,"to be ":2045,"riend":2046,"ly one-":2047,"er a f":2048,"sentence welcom":2049,".” Off":2050,"new partic":2051,"Thank you for your ":2052,"says, “Hi":2053,"e to our ":2054,"A new partic":2055,"ipant ":2056,", I’m ":2057,"riendly one-":2058,"er a friendly one-":2059,"sentence welcome.":2060,".” Offer a friendly one-":2061,"says, “Hi, I’m ":2062,"A new participant ":2063,".” Offer a friendly one-sentence welcome.":2064,"A new participant says, “Hi, I’m ":2065,"41":2066,"8-0":2067,"If ":2068,"Mov":2069,"is need":2070,".\nReason only from these nonce statements: If ":2071,".\nRewrite this as one professional, courteous sentence: “Mov":2072,"invalu":2073," copies. ":2074,".\nReason only from these nonce statements: If something is LUMA-N220":2075,".\nRewrite this as one professional, courteous sentence: “Move our meeting to ":2076,"if ":2077,"Monday":2078,"Tuesday":2079,"TWO] the door was locked; [N110":2080,"TWO] the door was locked.":2081,"THREE] the lights went out.":2082,"THREE] the lights went out; [N110":2083,"All ":2084,", I would like to ":2085,"to VERI-N220":2086,"for helping ":2087,"; PAVO-N220":2088,"; all ":2089,"elongs to ":2090,"commun":2091,"I have ":2092,"Wednesday":2093,"The request is underspecified: “Chang":2094,".\nReason only from these nonce statements: All ":2095,"e to our commun":2096,"; all VERI-N220":2097,"elongs to LUMA-N220":2098,"The request is underspecified: “Change the meeting for ":2099,".\nReason only from these nonce statements: All LUMA-N220":2100,"e to our community":2101,"12":2102,"1-0":2103,"64":2104,"mly ":2105,"war":2106,"est ":2107,"ing.” ":2108,"for listen":2109,"Reply ":2110,"rief":2111,"ly.":2112,"30MIRA":2113,".” Reply ":2114,"or two sentences.":2115,"look ":2116,"Respond natur":2117,"in one or two sentences.":2118,"Thank you for listen":2119,"says, “Thank you for listen":2120,"make next week ":2121,"says, “I feel ":2122,"ally and b":2123,"about tomorrow.” Reply ":2124,"mly in one or two sentences.":2125,"warmly in one or two sentences.":2126,"ing.” Respond natur":2127,"riefly.":2128,"says, “Thank you for listening.” Respond natur":2129,"ally and briefly.":2130,"about tomorrow.” Reply warmly in one or two sentences.":2131,"says, “Thank you for listening.” Respond naturally and briefly.":2132,"b in the ":2133,"past ":2134,"and ask ":2135,"to confirm":2136,"tense: ":2137,"day, and ":2138,"sentence with the ":2139,"e the sentence with the ":2140,"verb in the ":2141,"opens the ":2142,".\nRewrite the sentence with the ":2143,"type of ":2144,"past tense: ":2145,"verb in the past tense: ":2146,".\nRewrite the sentence with the verb in the past tense: ":2147,"?\n\n":2148,"sed ":2149,"tell ":2150,"The review ":2151," and ask":2152," them to confirm":2153,"with these notes: tell ":2154," and ask them to confirm":2155," and ask them to confirm. Include a greeting and closing; add no new facts.":2156,"46":2157,"end ":2158,"code":2159,"Monday.":2160,"uncer":2161,"7-0":2162,"9-0":2163,"sel":2164,"There ":2165,"ollab":2166,". The new review day ":2167,"ay for N16":2168,"Combine the supplied statements into one concise, fluent sentence without dropping any detail: There ":2169,"You're ":2170,"delay":2171,"delay for N16":2172,"opened the door.":2173,"-DONE] the conversation ended; [N110":2174,"-DONE] the conversation ended.":2175,"is a delay for N16":2176,"The review for N16":2177,"ollabor":2178,". The new review day is ":2179,"Combine the supplied statements into one concise, fluent sentence without dropping any detail: There is a delay for N16":2180,"4-0":2181,"Subject: Appreciation ":2182,"confirm ":2183,"understand":2184,"Edi":2185,"t only ":2186,"is waiting ":2187,": The two visitors ":2188,"matic":2189,"e this gram":2190,"al: The two visitors ":2191,"ed to mak":2192,"are waiting ":2193,"what is need":2194,"The two visitors are waiting ":2195,"able, and I ":2196,"invaluable, and I ":2197,"Edit only ":2198,"matical: The two visitors ":2199,"e this grammatical: The two visitors ":2200,"ed to make this grammatical: The two visitors ":2201,"what is needed to make this grammatical: The two visitors ":2202,"Edit only what is needed to make this grammatical: The two visitors ":2203,"Edit only what is needed to make this grammatical: The two visitors is waiting ":2204," so":2205,"Could ":2206,"Send ":2207,"on.” Ask one concise clarification question instead of assuming missing details.":2208,"s or ":2209,"y to ":2210,"cannot be known from the information given.":2211,"The request is underspecified: “Send ":2212,"take a moment to ":2213," soon.” Ask one concise clarification question instead of assuming missing details.":2214,"The request is underspecified: “Send N20":2215,"\nD":2216,"\nTi":2217,"51":2218,"Cod":2219,"med?":2220,"“Review ":2221,"one: ":2222,"o and ":2223,", which ":2224,", day, and ":2225,"mation ":2226,"ay: ":2227,"alone: ":2228,"answer from it ":2229,".\nRead the supplied ":2230,".” What ":2231,"coop":2232,"liest ":2233,"firmation ":2234,"time are ":2235,"named?":2236,"e: N120":2237,"earliest ":2238,"Confirmation ":2239,"memo and ":2240,"your earliest ":2241,"provided ":2242,"code, day, and ":2243,"\nDay: ":2244,"\nTime: ":2245,"Code: N120":2246,"“Review N120":2247,"alone: “Review N120":2248,"answer from it alone: “Review N120":2249,".\nRead the supplied memo and ":2250,".” What code, day, and ":2251,"time are named?":2252,"your earliest conven":2253,".\nRead the supplied memo and answer from it alone: “Review N120":2254,".” What code, day, and time are named?":2255,"den":2256,"form ":2257,", with a ":2258,"your earliest convenience":2259,". A ":2260,". Every ":2261,"conden":2262,"Draft N15":2263,"step":2264,"shorter ":2265,"Summarize this supplied text in one clear sentence: Draft N15":2266," is a NORU-N220":2267,"make mistakes":2268,"version will be ":2269,"version to be ":2270,"sed version to be ":2271,"take a moment to express my sincere ":2272,", with a conden":2273,". A shorter ":2274,"version will be shared at ":2275,", with a condensed version to be ":2276,". A shorter version will be shared at ":2277,"coming ":2278," is a VERI-N220":2279," is a LUMA-N220":2280,"look forward to our ":2281,"self":2282,". Every VERI-N220":2283," group is inside VERI-N220":2284,"put ":2285,"y have ":2286,", could you please ":2287,"ed? Say that the answer cannot be known from the information given; do not invent an answer.":2288," is in LUMA-N220":2289,"not dec":2290,". Could you please ":2291,"70MIRA":2292,"Which ":2293,".\nReason only from these nonce statements: Every ":2294,"ided? Say that the answer cannot be known from the information given; do not invent an answer.":2295,"convenient":2296," is inside NORU-N220":2297,"if they have ":2298,"choice will ":2299,"reschedule our meeting to ":2300,"make next week if they have ":2301,"Could we ":2302,"not decided? Say that the answer cannot be known from the information given; do not invent an answer.":2303,"Which choice will ":2304,".\nReason only from these nonce statements: Every LUMA-N220":2305,"make next week if they have not decided? Say that the answer cannot be known from the information given; do not invent an answer.":2306,"\"Could we ":2307,"prepare ":2308,"am writing to kindly ":2309,"time that ":2310,"ber":2311,"e of the ":2312,"Wednesday.":2313,"9WEI is ":2314,"member":2315,"50":2316,"you would like to ":2317,"tern":2318,"specific ":2319,"other ":2320,"ailab":2321,"availab":2322,"exper":2323,"cooper":2324,"21":2325,"produce tomorrow. The ":2326,"I'm sorry, but I cannot provide the exact random code that ":2327," will produce tomorrow. The ":2328,"invaluable, and I am ":2329,"other time that ":2330,"dic":2331,"inform ":2332," that N170":2333,"Summarize this supplied text in one clear sentence: The ":2334,"9WEI must belong ":2335,"predic":2336,"express my gratitude for the ":2337,". It must reach ":2338,"matter":2339,"inform you":2340,"ut":2341,"vice":2342,", or ":2343," is ready for ":2344,"device":2345,"would be more ":2346,"discuss ":2347,"convenient.\n\nThank you once again for your ":2348,"invaluable, and I am tru":2349,"would be more convenient.\n\nThank you once again for your ":2350,"inu":2351,"has been ":2352,",\n\nI hope this message finds you well.\n\nI wanted to take a moment to express my sincere ":2353,"continu":2354,"\"You're ":2355,"cur":2356,"hear":2357,"placed a ":2358,"I'm sorry to ":2359,"welcome, ":2360,"inform you that ":2361,"\"You're welcome, ":2362,"I'm sorry to hear":2363,"Br":2364,"Out":2365,"brac":2366,"could you ":2367,"eted ":2368,"keted ":2369,"lo ":2370,", welcom":2371,"10MIRA":2372,"only this ":2373," that you're feel":2374,".\nRewrite this as one professional, courteous sentence: “Br":2375,"text: <":2376,"Hello ":2377,"update the ":2378,"put only this ":2379,"I'm sorry to hear that you're feel":2380,"Output only this ":2381,"bracketed ":2382,".\nRewrite this as one professional, courteous sentence: “Bring ":2383,"Output only this bracketed ":2384,"Output only this bracketed text: <":2385,"at 14:20.":2386,"in the front desk.":2387,"and ask for N170":2388,"ternal ":2389,"other time that would be more convenient.\n\nThank you once again for your ":2390,"discuss our ":2391,"and is ":2392,"and propose a meeting at ":2393,".\n\nTo ":2394,"comple":2395,"dition":2396,"Friday.":2397,"up ":2398," belongs to LUMA-N220":2399,"read the message.\n[N110":2400," belong to NORU-N220":2401," belong to VERI-N220":2402,"better.” Ask one concise clarification question instead of assuming missing details.":2403,"delayed ":2404,"reac":2405,"on Monday":2406,"that you ":2407,"if you ":2408,"e to our community!":2409,", welcome to our community!":2410,"705":2411,"hes ":2412,"Tuesday.":2413,"your earliest convenience?\"":2414,"reaches ":2415,"is typ":2416,"ically ":2417,"must ":2418,"es is typ":2419,"of random cod":2420,"Subject: Meeting ":2421,"assistance":2422,"next step":2423,"improve":2424,"generation of random cod":2425,"you would like to improve":2426," will produce tomorrow. The generation of random cod":2427,"es is typically ":2428," will produce tomorrow. The generation of random codes is typically ":2429,"case ":2430,"Could you please specify what type of ":2431,"The draft N15":2432,"project":2433,"if you could ":2434,"t's ":2435,"rele":2436,"ly thank":2437,"it's okay to ":2438,"ful for your ":2439,"look forward to our continu":2440,"invaluable, and I am truly thank":2441,"invaluable, and I am truly thankful for your ":2442,"at 16:05.":2443,",\n\nI hope this message finds you well. I ":2444,"ensure ":2445,"at 09:30.":2446,"at 08:15.":2447,"ts of the ":2448,"on Tuesday":2449,"collected by ":2450,"date and time ":2451,"Could you please specify what aspec":2452,"curren":2453,"Could you please specify what aspects of the ":2454,"information for ":2455,"ickup ":2456,"new date and time ":2457,"inform you that I have ":2458,"way":2459,"ten ":2460,"on Wednesday":2461,"request the ":2462,"With":2463,"is writ":2464,"ed note":2465,", what ":2466,"ted information for ":2467,"The answer cannot be known from the information given":2468,"out see":2469,"it? Say that the answer cannot be known from the information given; do not invent an answer.":2470,"sentence is writ":2471,"stated information for ":2472,"Use only the stated information for ":2473,"items or ":2474,"ing the seal":2475,"inside it? Say that the answer cannot be known from the information given; do not invent an answer.":2476,"would be greatly appreciated":2477,"Time ":2478,"if there's an":2479,"ten inside it? Say that the answer cannot be known from the information given; do not invent an answer.":2480,"Without see":2481,"ed note, what ":2482,"The answer cannot be known from the information given.":2483,"sentence is written inside it? Say that the answer cannot be known from the information given; do not invent an answer.":2484,"Use only the stated information for case ":2485,"ing the sealed note, what ":2486,"Without seeing the sealed note, what ":2487,"Without seeing the sealed note, what sentence is written inside it? Say that the answer cannot be known from the information given; do not invent an answer.":2488,"ty ":2489,"tely ":2490,". It's ":2491,"Follow the requested wording and format. Item P1A-13-0":2492,"tainty ":2493,"uncertainty ":2494,"completely ":2495,". Remember":2496,"Work carefully from the text below. Case P1A-13-0":2497,"Read the supplied context, then answer. Ticket P1A-13-0":2498,"information given ":2499," as ":2500,"Complete this English practice task. Reference P1A-13-0":2501,"-038":2502,"number hidden behind the closed card labeled ":2503,"Could you please specify the exact ":2504,"15OMAR":2505,"Subject: Confirmation ":2506,"portan":2507,"importan":2508,"Use only the supplied material for item P1A-13-0":2509,"attention to this matter":2510,".\n\nTo further ":2511,"Subject: Confirmation of ":2512,"pickup ":2513,"ing.":2514,". Please let me know if this ":2515,"understanding and ":2516,", with a condensed version to be rele":2517,", with a condensed version to be released ":2518,"fre":2519,"gor":2520,"hum":2521,"to make mistakes":2522,". If":2523,", and it's okay to ":2524,"an to make mistakes":2525,"ad about ":2526,"Subject: Request for ":2527,"feel bad about ":2528,", it's completely ":2529,"?\n\nThank you for your ":2530,"human to make mistakes":2531,", and it's okay to feel bad about ":2532,", it's completely human to make mistakes":2533,", it's completely human to make mistakes, and it's okay to feel bad about ":2534,"at 11:45.":2535,"sib":2536,"Wei and ":2537,"possib":2538,"Meeting Time ":2539,"on Friday":2540,"ensure that the ":2541,"if there's another time that would be more convenient.\n\nThank you once again for your ":2542,"-con":2543,"5).\n":2544,"8-06":2545,"An":2546,"er this ":2547,". Ticket ":2548,"ed uncertainty ":2549,"swer this ":2550,"eck. Reference ":2551,"without inv":2552,"enting missing ":2553,"facts. Ticket ":2554,"Respond to the ":2555,"check. Reference ":2556,"bounded request ":2557,"tained uncertainty ":2558,"What exact number is hidden behind the closed card labeled N70":2559,"What exact random code will device N70":2560,"self-con":2561,"Answer this ":2562,"without inventing missing ":2563,"Respond to the bounded request ":2564,"tained uncertainty check. Reference ":2565,"self-contained uncertainty check. Reference ":2566,"Answer this self-contained uncertainty check. Reference ":2567,"without inventing missing facts. Ticket ":2568,"Respond to the bounded request without inventing missing facts. Ticket ":2569,"9).\n":2570,"is schedul":2571,"P1A-10-06":2572,"prepare for ":2573,"cooperation.\n\nBest regards,\n\n":2574,"invaluable, and I am truly thankful for your help":2575,"1).\n":2576,"ask if you could ":2577,"P1S-ABS-02":2578,"What exact number is hidden behind the closed card labeled N210":2579,").\nReason only from these nonce statements: The LUMA-N220":2580,"5-06":2581,"led":2582,"knowled":2583,"Respond directly to this bounded English task (P1A-12-0":2584,"-039":2585,"Could you please specify what type of items or ":2586,". Remember, it's ":2587,"knowledg":2588,"7-06":2589,"ated ":2590,"here ":2591,"en the requested ":2592,"is un":2593,"tise ":2594,"the information given ":2595,"for next week ":2596,"ly wh":2597,"sent ":2598,"clear":2599,"The requested ":2600,". Item ":2601,"Uma placed the ":2602,"knowable":2603,"te clear":2604,". Your exper":2605,"State clear":2606,"detail is un":2607,"requested a quiet meeting, and ":2608,"en the requested detail is un":2609,"tise and ":2610,"for next week cannot be known from the information given.":2611,"ly when the requested detail is un":2612,"The requested detail ":2613,"knowable. Item ":2614,". Your expertise and ":2615,"State clearly when the requested detail is un":2616,"State clearly when the requested detail is unknowable. Item ":2617,"4-06":2618,"5-05":2619,"man":2620,"til ":2621,"until ":2622,"9WEI b":2623,"feel fre":2624,"time works for you, or ":2625,"delayed until ":2626,"feel free to ":2627,"1-06":2628,"ough":2629,"at your earliest convenience?\"":2630,"-019":2631,"The requested detail about ":2632,"feel free to ask":2633,"\nL":2634,"0-05":2635,"Object: ":2636,"el: ":2637,"abel: ":2638,"me to ":2639," there's an":2640,"I'm sorry, but I cannot provide the exact number hidden behind the closed card labeled ":2641,"project. Your expertise and ":2642,". If there's an":2643,"\nLabel: ":2644,". If there's any":2645,"\nLabel: N120":2646,"'s in":2647,"0-06":2648,"4-05":2649,"7-05":2650,"8-05":2651,"Gre":2652,"ry ":2653,"entry ":2654,"bring ":2655,"P1A-10-05":2656,"ask if you could bring the ":2657," tomorrow":2658,"1-05":2659,"6-05":2660,"9-05":2661,"9-04":2662,"by the ":2663,"collabor":2664,"Give only the requested answer for exercise P1A-13-0":2665,"4-02":2666,"algor":2667,"without specific ":2668,"does ":2669,"nature of the ":2670,"for your assistance ":2671,"Handle this language task without outside facts. Ref P1A-03-0":2672,"gratitude for your assistance ":2673,"Subject: Confirmation of Meeting Time ":2674,". Please let me know if this time works for you, or ":2675,"project. Your expertise and support ":2676,"algorith":2677,"without specific knowledg":2678,"1-04":2679,"9-06":2680,". Wh":2681,"at's ":2682,"05OMAR":2683,"Complete this English practice task. Reference P1A-03-0":2684,",\n\nI hope this message finds you well.\n\nI wanted to express my gratitude for the ":2685," copies, and ":2686,",\n\nI hope this message finds you well.\n\nI wanted to take a moment to express my sincere gratitude for your assistance ":2687,"update the N18":2688,"must ensure that the ":2689,"important is ":2690,". What's ":2691,". What's important is ":2692,"5-04":2693,"9-02":2694,"tab":2695,"to me ":2696,"Mira placed the ":2697,"tomorrow ":2698,"name: Luis":2699,"-018":2700,"learn":2701,"device's in":2702,".\n\nTo further discuss our ":2703,"is scheduled to ":2704,"device's internal ":2705,"3).\n":2706,"7-02":2707,"7-04":2708,"Ad":2709,"over":2710,"ally":2711,"proc":2712,"recent ":2713,"specify ":2714,"-037":2715,"Work carefully from the text below. Case P1A-03-0":2716,"Handle this language task without outside facts. Ref P1A-02-0":2717,"Respond directly to this bounded English task (P1A-03-0":2718,"Follow the requested wording and format. Item P1A-02-0":2719,"name: Omar":2720,"name: Theo":2721,"upd":2722,"ditionally":2723,"entry by ":2724,"Additionally":2725,"\"Could you please ":2726,"6-06":2727,"based ":2728,"gro":2729,"ll":2730,"sy":2731,"stem ":2732,"ed by the ":2733,", I ":2734,"aged by the ":2735,"not predic":2736,"commen":2737,"I'm here ":2738,"opened the door; [N110":2739,"Use only the supplied material for item P1A-12-0":2740,"and is not predic":2741," will produce tomorrow. The generation of random codes is typically man":2742,"table ":2743,"device's internal sy":2744,"stem and is not predic":2745,"aged by the device's internal sy":2746," will produce tomorrow. The generation of random codes is typically managed by the device's internal sy":2747,"stem and is not predictable ":2748," will produce tomorrow. The generation of random codes is typically managed by the device's internal system and is not predictable ":2749,"send ":2750,",\n\n\n":2751,"Respond directly to this bounded English task (P1A-11":2752,"Handle this language task without outside facts. Ref P1A-12-0":2753,"Complete this English practice task. Reference P1A-02-0":2754,"Give only the requested answer for exercise P1A-03-0":2755,"-017":2756,"matter ":2757," as the information given ":2758,"\nDear ":2759,"0-02":2760,"6-02":2761,"6-04":2762,".\nPut the event labels in logical order. Return the labels in order without commentary: [N110":2763,"you need":2764,"\n\n\nDear ":2765," is delayed until ":2766,"Complete this English practice task. Reference P1A-11":2767,"by 14:20.":2768,"notebook":2769,"Respond directly to this bounded English task (P1A-02-0":2770,"What exact random code will device N210":2771,"I'm sorry, but I cannot provide the exact random code that device N210":2772,"Could you please specify the exact nature of the ":2773,". Remember, it's okay to ":2774,",\n\nI hope this message finds you well.\n\nI wanted to take a moment to express my sincere gratitude for your assistance with the ":2775,",\n\n\nI hope this message finds you well":2776,"you need, ":2777,",\n":2778,"8-02":2779,"8-04":2780," this way":2781,"ard.":2782,"Nora placed the ":2783,".\n\nBest regards,\n":2784,"se you need, ":2785,"forward.":2786,"Follow the requested wording and format. Item P1A-12-0":2787,". I look forward to our continu":2788,"thing else you need, ":2789,"you would like to improve?":2790,"feel free to ask.\"":2791,". If there's anything else you need, ":2792,"updated ":2793,". If there's anything else you need, feel free to ask.\"":2794,"0-04":2795,"1-02":2796,"5-02":2797,"and Meeting ":2798,"progre":2799,"Read the supplied context, then answer. Ticket P1A-12-0":2800,"time and ":2801,"Work carefully from the text below. Case P1A-02-0":2802,"Use only the supplied material for item P1A-03-0":2803,"P1A-10-02":2804,"P1A-10-04":2805,"every Monday.":2806,"Subject: Appreciation and Meeting ":2807,"assistance.\n\nBest regards,\n\n":2808,"progres":2809,"7).\n":2810,"ated by ":2811,"accomm":2812,"4NORA.":2813,"Asha placed the ":2814,"'s choice ":2815,"Read the supplied context, then answer. Ticket P1A-02-0":2816,"Read the supplied context, then answer. Ticket P1A-03-0":2817,"Request and ":2818,"reserving the ":2819,"odated by ":2820,"requested a quiet meeting, which ":2821,"am writing to kindly ask if you could bring the ":2822,"Subject: Meeting Request and ":2823,"Additionally, I would like to ":2824,"accommodated by ":2825,"'s choice for next week cannot be known from the information given.":2826,"accommodated by reserving the ":2827,"4-04":2828,"DNE":2829,"In ":2830,"king.":2831,"This ":2832,".\n\nIn ":2833,"WEDNE":2834,"information you're ":2835,"to the quiet room ":2836,"be collected by ":2837,"s, I would like to ":2838,"name: Jon":2839,"my schedul":2840,"scheduled for ":2841,"Please could you ":2842,"I'm sorry, but I cannot provide the information you're ":2843,"seeking.":2844,"WEDNESDAY|":2845,"I'm sorry, but I cannot provide the information you're seeking.":2846,"Pro":2847,"gl":2848,".\nDraft a short, polite email from ":2849,"with this ":2850,"al\n\nDear ":2851,"I could ":2852,"please reschedule our meeting to ":2853,"ad I could ":2854,"Use only the supplied material for item P1A-02-0":2855,"posal\n\nDear ":2856,"upcoming ":2857,"garden for ":2858,"learn ":2859,", could you please send the ":2860,"\"Could we please reschedule our meeting to ":2861," is ready for pickup ":2862,"would be greatly appreciated.\n\nThank you for your ":2863,"attention to this matter.\n\nBest regards,\n\n":2864,"Subject: Appreciation and Meeting Pro":2865,"glad I could ":2866,"Subject: Appreciation and Meeting Proposal\n\nDear ":2867,"le to ":2868,"you would like ":2869,"you provided ":2870,"ently":2871,"recently":2872,"4NORA ready":2873,"6PRIYA ready":2874,"Uma will meet ":2875,"to the front desk ":2876,"by 09:30.":2877,"Return exactly two plain-text lines and no Markdown. The first line must be `":2878,"9WEI-ONE] the last visitor left; [N110":2879,"every Tuesday.":2880,"-LAST] Mira ":2881,"-NEXT] Mira ":2882,"available ":2883,"understanding and cooperation.\n\nBest regards,\n\n":2884,"process":2885,"progress and ":2886,"Uma will meet Omar ":2887,"il":2888,"ve ":2889,"red ":2890,". The":2891,"Complete this English practice task. Reference P1A-12-0":2892,"Give only the requested answer for exercise P1A-12-0":2893,"9WEI. Return exactly the final class PAVO-N220":2894,"The meeting will ":2895,"east hall for ":2896,"effor":2897,". Could you please confirm ":2898,"9WEI must belong to.":2899,"me to prepare for ":2900,"is scheduled to be collected by ":2901,"-notebook":2902,"Blue ":2903,"ESDAY|":2904,"Fold":2905,"RSDAY|":2906,"TU":2907,"URSDAY|":2908,"en-notebook":2909,"THURSDAY|":2910,"green-notebook":2911,"Priya requested ":2912,"Priya placed the ":2913,"name: Wei":2914,"front desk.":2915,"3LUIS-START] the box was opened; [N110":2916,"deliv":2917,"will bring ":2918,"star":2919,"Wei and Asha ":2920,"recently. Your ":2921,"Blue Fold":2922,"TUESDAY|":2923,"green-notebook>":2924,"Blue Folder ":2925,"The objec":2926,"ship":2927,"label is ":2928,"in the reading area ":2929,"in the garden ":2930,"very":2931,"t is a ":2932,"by 11:45.":2933,"Give only the requested answer for exercise P1A-02-0":2934,"Could you please bring ":2935,"its label is ":2936,". Your assistance ":2937,", it's completely human to make mistakes, and it's okay to feel bad about it":2938,"I'm sorry, but I cannot provide the exact number hidden behind the closed card labeled N210":2939,"name: Omar\ncount: ":2940,"name: Theo\ncount: ":2941,"The object is a ":2942,"its label is N120":2943,"FRI":2944,"blu":2945,"er>":2946,"1JON. Return exactly the final class PAVO-N220":2947,"1JON must belong to.":2948,"1JON moved to ":2949,"7THEO moved to ":2950,"4NORA. Return exactly the final class PAVO-N220":2951,"4NORA must belong to.":2952,"4NORA. PAVO-N220":2953,"8UMA ready":2954,"Priya will meet ":2955,"Asha will meet ":2956,"folder>":2957,"for N1705":2958,"Jon\nright=":2959,"Theo\nright=":2960,"e-folder>":2961,"every Thursday.":2962,"Subject: Appreciation for the ":2963,"name: Luis\ncount: ":2964,". Your assistance with this ":2965,"FRIDAY|":2966,"blue-folder>":2967,"Priya will meet Luis ":2968,"Asha will meet Wei ":2969,"Jon\nright=Nora":2970,"Theo\nright=Mira":2971,"\"Dear ":2972,"jus":2973,"at 08:15":2974,"adjus":2975,"2ASHA.":2976,", and its label is N120":2977,"Work carefully from the text below. Case P1A-12-0":2978,"Draft a short, polite email from Theo ":2979,"item: meeting note":2980,"meeting note` and the second line must be `code: N19":2981,".\nReturn exactly two plain-text lines and no Markdown. The first line must be `item: meeting note` and the second line must be `code: N19":2982,"you provided me ":2983,"item: meeting note\ncode: N19":2984,"7-03":2985,"ferr":2986,"ner":2987,"and Mira ":2988,"en Note":2989,".\n\nAdditionally, I would like to ":2990,"4NORA-LAST] ":2991,"4NORA-NEXT] ":2992,"2ASHA ready":2993,"6PRIYA-LAST] ":2994,"6PRIYA-NEXT] ":2995,", and I'm here ":2996,"Uma requested ":2997,"book ":2998,"Omar\nright=":2999,"Combine the supplied statements into one concise, fluent sentence without dropping any detail: Mira ":3000,"moving ":3001,"item: draft":3002,"Theo and Mira ":3003,"1JON-START] the box was opened; [N110":3004,"7THEO-START] the box was opened; [N110":3005,"every Wednesday.":3006,".\nReturn exactly two plain-text lines and no Markdown. The first line must be `item: draft":3007,"-ACT] Mira ":3008,"opened the door.\n[N110":3009,"-PREP] Mira ":3010,"entered the room.\n[N110":3011,"front desk for ":3012,"I'm sorry to hear that you're feeling ":3013,"Green Note":3014,". Please let me know if this time works for you, or if there's another time that would be more convenient.\n\nThank you once again for your ":3015,".\n\nTo further discuss our progress and ":3016,"commence ":3017,"The meeting will commence ":3018,"4NORA-LAST] Nora ":3019,"4NORA-NEXT] Nora ":3020,"6PRIYA-LAST] Priya ":3021,"6PRIYA-NEXT] Priya ":3022,"Omar\nright=Uma":3023,"item: draft\ncode: N19":3024,".\nReturn exactly two plain-text lines and no Markdown. The first line must be `item: draft` and the second line must be `code: N19":3025,"Green Notebook ":3026,"pr":3027,"omp":3028,"isi":3029,"and Priya ":3030,"ow ":3031,"ity ":3032,"es you would like ":3033,"3LUIS. Return exactly the final class PAVO-N220":3034,"3LUIS must belong to.":3035,"to the reading area ":3036,"in the quiet room ":3037,"kindly reschedule our meeting to ":3038,"quiet room for ":3039,"provided":3040,"decisi":3041,"next steps, I would like to ":3042,"collaboration":3043,"Subject: Confirmation of Meeting Time Chang":3044,". What's important is that you ":3045,"delivere":3046,"starts ":3047,"promp":3048,"Small ":3049,"min":3050,"tner":3051,"insu":3052,"referr":3053,"is insu":3054,". W":3055,"and Request for ":3056,"now ":3057,"icient":3058,"partner":3059,"was reviewed ":3060,"2ASHA-LAST] ":3061,"2ASHA-NEXT] ":3062,"2ASHA-ACT] ":3063,"2ASHA-PREP] ":3064,"6PRIYA`.":3065,"6PRIYA-ACT] ":3066,"6PRIYA-PREP] ":3067,"8UMA-LAST] ":3068,"8UMA-NEXT] ":3069,"Mira will meet ":3070,"Asha requested ":3071,"Luis and Priya ":3072,"2.\nPut the event labels in logical order. Return the labels in order without commentary: [N110":3073,"Best regards,\n\n":3074,"Luis\nright=":3075,"are referr":3076,"3LUIS-ONE] the last visitor left; [N110":3077,"assistance you provided me ":3078,"fficient":3079,"gratitude for the assistance you provided me ":3080,".\n\n\nBest regards,\n\n":3081,"\"Could we kindly reschedule our meeting to ":3082,",\n\nI hope this message finds you well. I wanted to ":3083,"9WEI belong ":3084,"name: Jon\ncount: ":3085,"recently. Your support ":3086,"delivered ":3087,"is insufficient":3088,"partnership":3089,"2ASHA-LAST] Asha ":3090,"2ASHA-NEXT] Asha ":3091,"2ASHA-ACT] Asha ":3092,"2ASHA-PREP] Asha ":3093,"6PRIYA-ACT] Priya ":3094,"6PRIYA-PREP] Priya ":3095,"8UMA-LAST] Uma ":3096,"8UMA-NEXT] Uma ":3097,"Mira will meet Theo ":3098,"Luis\nright=Priya":3099,"are referring to ":3100,"gratitude for the assistance you provided me recently. Your support ":3101,"is insufficient.":3102,"8-03":3103,"ient ":3104,"ed about tomorrow.” Reply warmly in one or two sentences.":3105,"20.\n":3106,"at the ":3107,"1JON was reviewed ":3108,"8UMA`.":3109,"to the garden ":3110,"to the east hall ":3111,"'s meeting":3112,"by 08:15.":3113,"2.\nAsha ":3114,"2.\nDraft a short, polite email from ":3115,"Draft a short, polite email from Uma ":3116,"8.\nDraft a short, polite email from Uma ":3117,"oking ":3118,"will bring them on Monday.":3119,"understand ":3120,"project. Your expertise and support were ":3121,"recent project. Your expertise and support were ":3122,"ility ":3123,"'s meeting?":3124,"2.\nDraft a short, polite email from Asha ":3125,").\nRewrite this as one professional, courteous sentence: “Bring ":3126,"-parcel":3127,"MON":3128,"Par":3129,"cel ":3130,"sma":3131,"rearranged ":3132,"ing this way":3133,"tivi":3134,"and Uma ":3135,"and Nora ":3136,"activi":3137,"7THEO. Return exactly the final class PAVO-N220":3138,"7THEO must belong to.":3139,"7THEO was reviewed ":3140,"2ASHA. Return exactly the final class PAVO-N220":3141,"2ASHA must belong to.":3142,"2ASHA. PAVO-N220":3143,"Draft a short, polite email from Luis ":3144,"Draft a short, polite email from Jon ":3145,"Combine the supplied statements into one concise, fluent sentence without dropping any detail: Nora ":3146,"move ":3147,"Omar and Uma ":3148,"Jon and Nora ":3149,"need to ":3150,"1JON-ONE] the last visitor left; [N110":3151,"I'm sorry to hear that you're feeling this way":3152,"Could you please specify what type of items or activi":3153,"ll-parcel":3154,". What's important is that you learn ":3155,"gratitude for the assistance you provided me recently. Your support has been ":3156,"MONDAY|":3157,"Parcel ":3158,"small-parcel":3159,"Could you please specify what type of items or activiti":3160,"small-parcel>":3161,"and move ":3162,"context ":3163,"Subject: Re":3164,"\n\nDear Uma":3165,"ed collabor":3166,"availability ":3167,"and move forward.":3168," entry by ":3169,"010":3170,"9-03":3171,"ed partnership":3172,"for N20":3173,"meeting time ":3174,"70.\n":3175,"Nora will meet ":3176,"deter":3177,"Draft a short, polite email from Priya ":3178,"item: green notebook":3179,"9WEI moved to ":3180,"9WEI was reviewed ":3181,"6.\nDraft a short, polite email from Priya ":3182,"9WEI-START] the box was opened; [N110":3183,"7THEO-ONE] the last visitor left; [N110":3184,"request that you ":3185,"request for N20":3186,"every Friday.":3187,"arranged the ":3188,".\nReturn exactly two plain-text lines and no Markdown. The first line must be `item: green notebook":3189,"will bring them on Friday.":3190,"ensure the ":3191,"possible to ":3192,"time and effor":3193,"name: Wei\ncount: ":3194,"Nora will meet Jon ":3195,"item: green notebook\ncode: N19":3196,".\nReturn exactly two plain-text lines and no Markdown. The first line must be `item: green notebook` and the second line must be `code: N19":3197,"possible to deter":3198,"6-03":3199,"for our ":3200,"ate and time ":3201,"in the east hall ":3202,"6PRIYA.":3203,"pleas":3204,"chang":3205,"16.\n":3206,"t date and time ":3207,"Thursday at ":3208,"P1A-10-03":3209,"item: small parcel":3210,"P1S-ABS-03":3211,".\nReturn exactly two plain-text lines and no Markdown. The first line must be `item: small parcel":3212,"Could you please specify the curren":3213,"current ":3214,"new date and time for ":3215,",\n\n\nI hope this message finds you well. I ":3216,". Your assistance with this matter ":3217,"t date and time of the ":3218,"item: small parcel\ncode: N19":3219,".\nReturn exactly two plain-text lines and no Markdown. The first line must be `item: small parcel` and the second line must be `code: N19":3220,"Could you please specify the current date and time of the ":3221,"0-03":3222,"4-03":3223,"Do":3224,"tra":3225," there ":3226,"elm":3227,"frus":3228,"you are referring to ":3229,"use ":3230,"whelm":3231,"4NORA`.":3232,"2ASHA`.":3233,"8UMA-ACT] ":3234,"8UMA-PREP] ":3235,"Wei\nright=":3236,"by 16:05.":3237,"9WEI.":3238,"8.\nPut the event labels in logical order. Return the labels in order without commentary: [N110":3239,"item: blue folder":3240,"\n\nDear Mira":3241,",\n\nI hope this message finds you well.\n\nI am writing to ":3242,"Meeting Note":3243,".\nReturn exactly two plain-text lines and no Markdown. The first line must be `item: blue folder":3244,"Appreciation":3245,"Hello":3246,"9WEI must belong to NORU-N220":3247,"does not ":3248,"overwhelm":3249,"grow":3250,"Subject: Meeting Request and Appreciation":3251,". Could you please confirm if this ":3252,"recent project. Your expertise and support were invaluable, and I am truly thankful for your help":3253,"Docum":3254,"frustra":3255,"8UMA-ACT] Uma ":3256,"8UMA-PREP] Uma ":3257,"Wei\nright=Asha":3258,"item: blue folder\ncode: N19":3259,".\nReturn exactly two plain-text lines and no Markdown. The first line must be `item: blue folder` and the second line must be `code: N19":3260,"ce, ":3261,"had ":3262,"p ":3263,"vant ":3264,"question":3265,"3LUIS moved to ":3266,"8UMA.":3267,"8UMA. Return exactly the final class PAVO-N220":3268,"8UMA must belong to.":3269,"8UMA. PAVO-N220":3270,"5OMAR. Return exactly the final class PAVO-N220":3271,"5OMAR must belong to.":3272,"11:45 ":3273,"Omar` and the second line must be `count: ":3274,"8.\nUma ":3275,"Theo` and the second line must be `count: ":3276,"\n\nDear Jon":3277,"\n\nDear Luis":3278,"6.\nPut the event labels in logical order. Return the labels in order without commentary: [N110":3279,"it is not ":3280,"of the document ":3281,"Please ensure that ":3282,".\nReturn exactly two plain-text lines and no Markdown. The first line must be `name: Omar` and the second line must be `count: ":3283,".\nReturn exactly two plain-text lines and no Markdown. The first line must be `name: Theo` and the second line must be `count: ":3284,",\n\nI hope this message finds you well.\n\nI wanted to take a moment to express my sincere gratitude for your assistance with the recent project. Your expertise and support were invaluable, and I am truly thankful for your help":3285,".\n\nBest regards,\nWei":3286,"1-03":3287,", pleas":3288,"N1705":3289,"request":3290,"1JON.":3291,"1JON must belong to NORU-N220":3292,"3LUIS? Say that the answer cannot be known from the information given; do not invent an answer.":3293,"4NORA must belong to the class NORU-N220":3294,"6PRIYA. Return exactly the final class PAVO-N220":3295,"6PRIYA must belong to.":3296,"6PRIYA. PAVO-N220":3297,"assistance, ":3298," copies to the quiet room":3299,"document or ":3300,"inform you that I have updated ":3301,"Could you please specify what type of items or activities you would like ":3302,"030":3303,"hav":3304,"and current ":3305,"to support ":3306,"you sent ":3307,"m and current ":3308,"6PRIYA must belong to the class NORU-N220":3309,"Draft a short, polite email from Nora ":3310,"Draft a short, polite email from Wei ":3311,"4.\nDraft a short, polite email from Nora ":3312,"\n\nDear Theo":3313,"7.\nDraft a short, polite email from Theo ":3314,"its algorith":3315,"your availability ":3316," copies of the document ":3317,"state.":3318,"e of its algorith":3319,"attention to this request":3320,"I'm sorry, but I cannot provide the exact random code that device N70":3321,"ensure we ":3322,"without specific knowledge of its algorith":3323," will produce tomorrow. The generation of random codes is typically managed by the device's internal system and is not predictable without specific knowledge of its algorith":3324,"-ACT] Mira entered the room; [N110":3325,"at the front desk.":3326,"to support you":3327,"m and current state.":3328," will produce tomorrow. The generation of random codes is typically managed by the device's internal system and is not predictable without specific knowledge of its algorithm and current state.":3329,"004":3330,"ses ":3331,"tain ":3332,"4NORA-ACT] ":3333,"4NORA-PREP] ":3334,"class.":3335,"0MIRA-PREP] Mira ":3336,"Jon` and the second line must be `count: ":3337,"Luis` and the second line must be `count: ":3338,"light ":3339,"needs to ":3340,".\nReturn exactly two plain-text lines and no Markdown. The first line must be `name: Jon` and the second line must be `count: ":3341,".\nReturn exactly two plain-text lines and no Markdown. The first line must be `name: Luis` and the second line must be `count: ":3342,"time works for you?\n\nThank you for your ":3343,"Could you please specify the exact nature of the request for N20":3344,"next steps, I would like to propose a meeting at ":3345,"it is not possible to deter":3346,"4NORA-ACT] Nora ":3347,"4NORA-PREP] Nora ":3348,"needs to be ":3349,"015":3350,"006":3351,"work ":3352,", please ":3353,"The exact ":3354,"14.\n":3355,"Follow the requested wording and format. Item P1A-03-0":3356,"4.\nNora ":3357,"4.\nPut the event labels in logical order. Return the labels in order without commentary: [N110":3358,"\n\nDear Nora":3359,"-012":3360,"7.\nPut the event labels in logical order. Return the labels in order without commentary: [N110":3361,"3.\nPut the event labels in logical order. Return the labels in order without commentary: [N110":3362,"produce tomorrow ":3363,"reading area for ":3364,"small parcel that ":3365,"will bring them on Tuesday.":3366," will produce tomorrow ":3367,"random code that device N70":3368," as the information given is insufficient.":3369,", and I'm here to support you":3370,"Subject: Confirmation of Meeting Time Change ":3371,"2ASHA-ACT] Asha entered the room; [N110":3372,"6PRIYA-ACT] Priya entered the room; [N110":3373,"for our upcoming ":3374,"The exact random code that device N70":3375," will produce tomorrow cannot be known from the information given.":3376,"ces":3377,"follow":3378,"gan":3379," though":3380,"organ":3381,". I'm ":3382,").\nSummarize this supplied text in one clear sentence: ":3383,"0MIRA ready":3384,"026":3385,"6.\nPriya ":3386,"invoice ":3387," copies, which ":3388,"help.\"":3389,"Use only the stated information for case P1S-ABS-0":3390," tomorrow. Please let me know if this time works for you, or if there's another time that would be more convenient.\n\nThank you once again for your ":3391,"glad I could help.\"":3392,".\n\nAdditionally, I would like to request the ":3393,"ensure we are ":3394,"organiz":3395,". I'm glad I could help.\"":3396," class.":3397,"In":3398,"ked the ":3399,"set ":3400,"of you":3401,"of our ":3402,"ing and grow":3403,"booked the ":3404,"16:05 ":3405,"012":3406,"018":3407," must belong to the NORU-N220":3408,"learning and grow":3409,".\n\nTo further discuss our progress and next steps, I would like to propose a meeting at ":3410,"context or ":3411,"you are referring to with the ":3412," copies of the document are ":3413,"Inv":3414," docum":3415," has been ":3416,"\"Please could you ":3417,"5-03":3418,"e?\"":3419,"this ":3420,"ed Mira ":3421,", s":3422,"10.\n":3423,"30.\n":3424,"3LUIS was reviewed ":3425,"Wei` and the second line must be `count: ":3426,").\nThe request is underspecified: “Prepare ":3427,"? Please let me know if this ":3428,"\n\nDear Omar":3429,"need for ":3430,"1.\nPut the event labels in logical order. Return the labels in order without commentary: [N110":3431,"5OMAR-ONE] the last visitor left; [N110":3432,".\nReturn exactly two plain-text lines and no Markdown. The first line must be `name: Wei` and the second line must be `count: ":3433,"discussion":3434,".\n\n\nThank you for your ":3435,"send it ":3436,"my schedule and ":3437,"at 08:15 ":3438,"decision":3439,"Small Parcel ":3440,"ed collaboration.\n\nBest regards,\n\n":3441,", please?\"":3442,"016":3443,"008":3444,"003":3445,"3`.":3446,"bu":3447,"ser":3448,"refor":3449,"is the ":3450,". You":3451,"ribu":3452,"if there ":3453,"3LUIS.":3454,"3LUIS must belong to NORU-N220":3455,"6PRIYA by ":3456,"45.\n":3457,"Nora for her help.":3458,"Asha for her help.":3459,"'s code ":3460,"5OMAR.":3461,"5OMAR must belong to NORU-N220":3462,").\nPut the event labels in logical order. Return the labels in order without commentary: [N110":3463,").\nWhat exact number is hidden behind the closed card labeled N210":3464,"09:30; day=":3465,"038":3466,"Omar; action=thanked; recipient=":3467,"Omar thanked ":3468,"Luis thank":3469,"2.\nTurn these supplied fields into one natural English sentence without adding information: speaker=":3470,"2.\nTurn these supplied fields into one natural English sentence without adding information: actor=":3471,"What is the ":3472,"Luis; action=thanked; recipient=":3473,"Theo; action=thanked; recipient=":3474,"Theo thanked ":3475,"Mira; reason=help":3476,"Nora; reason=help":3477,"Asha; reason=help":3478,"Asha; action=placed; object=":3479,"1.\nDraft a short, polite email from Jon ":3480,"9.\nPut the event labels in logical order. Return the labels in order without commentary: [N110":3481,"meeting note; location=the ":3482,"small parcel; location=the ":3483,"Turn these supplied fields into one natural English sentence without adding information: speaker=Luis; action=thanked; recipient=":3484,"Turn these supplied fields into one natural English sentence without adding information: speaker=Theo; action=thanked; recipient=":3485,"draft; location=the ":3486," things for Uma":3487,"; state=ready; time=09:30; day=":3488,"document N170":3489,"arranged them before 16:05.":3490,"device's code ":3491,"placed a small parcel ":3492,"\"Could you please update the N18":3493,"based on the ":3494,". I look forward to our continued partnership":3495,"collaboration. I look forward to our continued partnership":3496,"Could you please specify the current date and time of the meeting ":3497," thought":3498,"ed Mira for her help.":3499,"send it to me ":3500,"refore, ":3501,". You'":3502,"Omar; action=thanked; recipient=Asha; reason=help":3503,"Omar thanked Asha for her help.":3504,"Luis thanked Mira for her help.":3505,"2.\nTurn these supplied fields into one natural English sentence without adding information: speaker=Omar; action=thanked; recipient=Asha; reason=help":3506,"2.\nTurn these supplied fields into one natural English sentence without adding information: actor=Asha; action=placed; object=":3507,"What is the new date and time for ":3508,"Theo thanked Nora for her help.":3509,"Turn these supplied fields into one natural English sentence without adding information: speaker=Luis; action=thanked; recipient=Mira; reason=help":3510,"Turn these supplied fields into one natural English sentence without adding information: speaker=Theo; action=thanked; recipient=Nora; reason=help":3511,"device's code generation ":3512,"-mak":3513,":\n\n":3514,"a. The":3515,"cri":3516,"e which ":3517,"ing cri":3518,"at 09:30":3519,"The information ":3520,"ferences":3521,"Uma for her help.":3522,"Wei; action=thanked; recipient=":3523,"Wei thanked ":3524,"Priya for her help.":3525,"teria. The":3526,"'s pre":3527,"0MIRA.":3528,"any decision":3529,"08:15; day=":3530,"036":3531,"Jon; action=thanked; recipient=":3532,"Jon thanked ":3533,"Draft a short, polite email from Omar ":3534,"8.\nTurn these supplied fields into one natural English sentence without adding information: speaker=":3535,"\n\nDear Priya":3536,"-013":3537,"Mira; action=placed; object=":3538,"Priya; reason=help":3539,"Priya; action=placed; object=":3540,"Nora; action=placed; object=":3541,"Uma; reason=help":3542,"Uma; action=placed; object=":3543,"3.\nDraft a short, polite email from Luis ":3544,"Follow the requested wording and format. Item P1A-11":3545,"5OMAR-START] the box was opened; [N110":3546,"make the ":3547,"Turn these supplied fields into one natural English sentence without adding information: speaker=Wei; action=thanked; recipient=":3548,"Turn these supplied fields into one natural English sentence without adding information: actor=Mira; action=placed; object=":3549,"Turn these supplied fields into one natural English sentence without adding information: actor=Priya; action=placed; object=":3550,"Turn these supplied fields into one natural English sentence without adding information: actor=Nora; action=placed; object=":3551,"Turn these supplied fields into one natural English sentence without adding information: actor=Uma; action=placed; object=":3552,"blue folder; location=the ":3553,"; state=ready; time=08:15; day=":3554,"to bring the green notebook ":3555,"provided does not ":3556,"ensure I ":3557,"mine which ":3558,"8UMA-ACT] Uma entered the room; [N110":3559,"Could you please specify what type of items or activities you would like me to prepare for ":3560,"it is not possible to determine which ":3561,"refore, it is not possible to determine which ":3562,"-making cri":3563,"The information provided does not ":3564,"ferences, ":3565,"Wei thanked Priya for her help.":3566,"teria. Therefore, it is not possible to determine which ":3567,"'s preferences, ":3568,"any decision-making cri":3569,"Jon; action=thanked; recipient=Uma; reason=help":3570,"Jon thanked Uma for her help.":3571,"8.\nTurn these supplied fields into one natural English sentence without adding information: speaker=Jon; action=thanked; recipient=Uma; reason=help":3572,"Turn these supplied fields into one natural English sentence without adding information: speaker=Wei; action=thanked; recipient=Priya; reason=help":3573,"The information provided does not specify ":3574,"teria. Therefore, it is not possible to determine which choice ":3575,"any decision-making criteria. Therefore, it is not possible to determine which choice ":3576,"001":3577,"mos":3578,"oin":3579,"ts you ":3580,"for this ":3581,"tiv":3582,"you need to ":3583,"option":3584,".\n\nCould you please ":3585,"levant ":3586,"or any decision-making criteria. Therefore, it is not possible to determine which choice ":3587,"time is ":3588,"by moving ":3589,").\nFix the sentence and give no explanation: ":3590,"0MIRA-ACT] Mira entered the room; [N110":3591,"t relevant ":3592,"s, or any decision-making criteria. Therefore, it is not possible to determine which choice ":3593,"11:45; day=":3594,"0.\nMira ":3595,"provide the mos":3596,"To improv":3597,"To ensure I ":3598,".\n\nThank you once again for your assistance.\n\nBest regards,\n\n":3599,". It was ":3600," things for Nora":3601,"; state=ready; time=11:45; day=":3602,"aspects you ":3603,"could you specify ":3604,"Respond to the bounded request without inventing missing facts. Ticket P1S-ABS-0":3605,"process.":3606,"Subject: Re: ":3607,"Document":3608,"following ":3609,"set for ":3610,"'s preferences, option":3611,"provide the most relevant ":3612,"To improve the ":3613,"To ensure I provide the most relevant ":3614,"could you specify which ":3615,"'s preferences, options, or any decision-making criteria. Therefore, it is not possible to determine which choice ":3616,"\n[N110":3617,"\"Could you please specify what aspects of the ":3618,"005":3619,";\n[N110":3620,"nec":3621," the following ":3622,"is concise ":3623,"the need for ":3624,"and directly ":3625,"and Request ":3626,"to make the ":3627,"t better":3628,"from them ":3629,"\n\nThis ":3630,"complete this English practice tas":3631,"4NORA produce tomorrow? Say that the answer cannot be known from the information given; do not invent an answer.":3632,"information to make the ":3633,"2ASHA produce tomorrow? Say that the answer cannot be known from the information given; do not invent an answer.":3634,"for your":3635,"help, and I ":3636,"helpful ":3637,"9WEI. PAVO-N220":3638,"9WEI, and VERI-N220":3639,"resses ":3640,"question is concise ":3641,"addresses ":3642,"clarification question":3643,"034":3644,"Omar, send the ":3645,"Draft a short, polite email from Mira ":3646,".\nRewrite this as one professional, courteous sentence: “Omar, send the ":3647,"9WEI group is inside VERI-N220":3648,"inside NORU-N220":3649,"ask the following ":3650,",\n\nI hope this message finds you well.\n\nI am writing to kindly ask if you could bring the ":3651,"?\"\n\nThis ":3652,"0.\nDraft a short, polite email from Mira ":3653,"read the message;\n[N110":3654,"y this coming ":3655,"To complete this English practice tas":3656,"green notebook; location=the ":3657,"more information to make the ":3658," copies to the garden":3659,"could you please specif":3660,"you're feeling ":3661,".\n\nThank you for your attention to this matter.\n\nBest regards,\n\n":3662,"uncertain ":3663,". Could you please send it to me ":3664,"9WEI is in LUMA-N220":3665,"9WEI is inside NORU-N220":3666,"you would like to improve?\"\n\nThis ":3667,". It's okay to ":3668,"State clearly when the requested detail is unknowable. Item P1S-ABS-0":3669,"very thought":3670,"frustrated ":3671,"had to ":3672,"your availability for this ":3673,"Subject: Confirmation of Meeting Time Change for N170":3674,"invoice for the ":3675,"you are referring to with the code ":3676,":\n\n\"Could you please specify what aspects of the ":3677,". It was very thought":3678,"necess":3679,"the need for more information to make the ":3680,"and directly addresses ":3681,"question is concise and directly addresses ":3682,"clarification question:\n\n\"Could you please specify what aspects of the ":3683,"ask the following clarification question:\n\n\"Could you please specify what aspects of the ":3684,"To complete this English practice task":3685,"you would like to improve?\"\n\nThis question is concise and directly addresses ":3686,". It was very thoughtful ":3687,"you would like to improve?\"\n\nThis question is concise and directly addresses the need for more information to make the ":3688," to ":3689,"020":3690,"009":3691,"4`.":3692,"bly ":3693,"d, ":3694,"how ":3695,"s that ":3696,"redi":3697,"esi":3698,"ed, ":3699,"addition":3700,"tion.":3701,"ate ":3702,"7THEO? Say that the answer cannot be known from the information given; do not invent an answer.":3703,"Mira walks through the ":3704,"Mira walk through the ":3705,"Uma moved ":3706,"Asha reserved the ":3707,"9WEI? Say that the answer cannot be known from the information given; do not invent an answer.":3708,"023":3709,"028":3710,"green notebook arrived ":3711,"0.\nPut the event labels in logical order. Return the labels in order without commentary: [N110":3712,"Thursday.”":3713,"draft better":3714,"will be collected by ":3715,"incredi":3716," things for Mira":3717,"specifically ":3718,". Fix it by Thursday.”":3719,"Correct the agreement error and return one sentence only: Mira walk through the ":3720,"The request is underspecified: “Make the draft better":3721,"Summarize this supplied text in one clear sentence: The green notebook arrived ":3722,"inform you that I have had to ":3723,"Answer this self-contained uncertainty check. Reference P1S-ABS-0":3724,"based on ":3725,"assistance, could you please specif":3726,"time works for you?\n\nThank you for your understanding and cooperation.\n\nBest regards,\n\n":3727,"4NORA-ACT] Nora entered the room; [N110":3728,"my schedule and will be ":3729,"To ensure I provide the most relevant assistance, could you please specif":3730,"bly helpful ":3731,"Mira walks through the quiet room ":3732,"Asha reserved the front desk for ":3733,"incredibly helpful ":3734,"Correct the agreement error and return one sentence only: Mira walk through the quiet room ":3735,"The request is underspecified: “Make the draft better.” Ask one concise clarification question instead of assuming missing details.":3736,"inform you that I have had to adjus":3737,"9`.":3738,"ge":3739,"join":3740,"oice":3741,"all":3742,"1JON. PAVO-N220":3743,"1JON, and VERI-N220":3744,"1JON group is inside VERI-N220":3745,"1JON is in LUMA-N220":3746,"1JON is inside NORU-N220":3747,"looking ":3748,"6PRIYA is LUMA-N220":3749,"6PRIYA, it is VERI-N220":3750,"6PRIYA, it is NORU-N220":3751,"6PRIYA. If it is VERI-N220":3752,"Asha moved ":3753,"16:05; day=":3754,"039":3755,"draft now.”":3756,"Luis says, “I made a mistake and feel bad.” Give a kind, nonjudgmental response in no more than two sentences.":3757,"8.\nTurn these supplied fields into one natural English sentence without adding information: actor=Uma; action=placed; object=":3758,"green notebook now.”":3759,"4.\nTurn these supplied fields into one natural English sentence without adding information: actor=Nora; action=placed; object=":3760,"\n\nDear Wei":3761,"6.\nTurn these supplied fields into one natural English sentence without adding information: speaker=Wei; action=thanked; recipient=Priya; reason=help":3762,"small parcel is N120":3763,"Wei for the ":3764,".\n\nBest regards,\n\nOmar":3765,"7.\nTurn these supplied fields into one natural English sentence without adding information: item=N230":3766,"3.\nTurn these supplied fields into one natural English sentence without adding information: item=N230":3767,"9.\nDraft a short, polite email from Wei ":3768,"with these notes: thank Wei for the ":3769,"feeling":3770,"will bring them on Wednesday.":3771,"will bring them on Thursday.":3772," copies to the east hall":3773,"; state=ready; time=16:05; day=":3774," chairs into the front desk":3775," chairs into the east hall":3776,"to bring the draft ":3777,"arranged them before 11:45.":3778,"Copy this exact uppercase-and-time value with nothing else: WEDNESDAY|":3779,"45OMAR-":3780,"will collect it on Tuesday.":3781,"Context: “The label on the small parcel is N120":3782,"with these notes: tell Mira":3783,",\n\nI hope this message finds you well.\n\nI wanted to take a moment to express my sincere gratitude for the assistance you provided me recently. Your support has been ":3784,"15OMAR-":3785,", I would ":3786,"and Request for Inv":3787,"time and effort":3788,"document or information ":3789,"have th":3790,"7.\nDraft a short, polite email from Theo with these notes: tell Mira":3791," things for Uma.” Ask one concise clarification question instead of assuming missing details.":3792,".\n\nCould you please confirm ":3793,"you are referring to with the code N20":3794,"and Request for Invoice":3795,"2`.":3796,"7`.":3797,"ces ":3798,"me the ":3799,"ms and ":3800,"pat":3801,"e N18":3802,"internal ":3803,". Nora ":3804,"ard the ":3805,"tired ":3806,"at 14:20":3807,"at 11:45 ":3808,"ted without specific knowledg":3809,"The green notebook ":3810,"or if there's another time that would be more convenient.\n\nThank you once again for your ":3811,"7THEO. Fix it by ":3812,"7THEO. The new review day is ":3813,"Nora moved ":3814,"Priya has the ":3815,"for you? Please let me know if this ":3816,"cannot be predic":3817,").\nReturn exactly two plain-text lines and no Markdown. The first line must be `":3818,"0MIRA`.":3819,"Thank you once again for your ":3820,"draft is N120":3821,"2.\nSummarize this supplied text in one clear sentence: ":3822,"8.\nSummarize this supplied text in one clear sentence: ":3823,"029":3824,"4.\nSummarize this supplied text in one clear sentence: ":3825,"small parcel arrived ":3826,"7.\nCombine the supplied statements into one concise, fluent sentence without dropping any detail: There is a delay for N16":3827,"9WEI-TWO] the door was locked; [N110":3828,"9WEI-TWO] the door was locked.":3829,"9WEI-THREE] the lights went out.":3830,"9WEI-THREE] the lights went out; [N110":3831,"9.\nTurn these supplied fields into one natural English sentence without adding information: item=N230":3832,"forward the ":3833,"in the garden.”—who will meet whom and where?":3834,"in the garden. Nora ":3835,"to bring the blue folder ":3836,"Friday.”":3837,"with these notes: ask Luis ":3838,"with these notes: ask Jon ":3839,"will collect it on Thursday.":3840,"According to this message only—“Uma will meet Omar ":3841,"update N18":3842,". It begins at 08:15.":3843,"Context: “The label on the draft is N120":3844,"on Thursday. Include a greeting and closing; add no new facts.":3845,"next steps and ":3846," will produce tomorrow. The generation of random codes is typically based on ":3847,"Subject: Request for Blue Folder ":3848,"algorithms and ":3849,"send me the ":3850,".\n\nIn light ":3851,"-LAST] Mira replied; [N110":3852,"-LAST] Mira replied.":3853,"-NEXT] Mira read the message; [N110":3854,"Uma will meet Omar in the garden.":3855,"Combine the supplied statements into one concise, fluent sentence without dropping any detail: Mira has the ":3856,"8.\nDraft a short, polite email from Uma with these notes: ask Jon ":3857,"inform you that I have updated my ":3858,"work for you? Please let me know if this ":3859,"at 09:30 ":3860,"To complete this English practice task, I would ":3861,". It was very thoughtful of you":3862,"internal algorithms and ":3863,"ted without specific knowledge of the ":3864,"cannot be predicted without specific knowledge of the ":3865,"According to this message only—“Uma will meet Omar in the garden.”—who will meet whom and where?":3866," will produce tomorrow. The generation of random codes is typically based on internal algorithms and ":3867,"To complete this English practice task, I would ask the following clarification question:\n\n\"Could you please specify what aspects of the ":3868," will produce tomorrow. The generation of random codes is typically based on internal algorithms and cannot be predicted without specific knowledge of the ":3869,"\"Luis":3870,"-note":3871,"011":3872,"1`.":3873,"<green-notebook>":3874,"s are ":3875,"ord ":3876,". Mira ":3877,". Uma ":3878,"eliv":3879,"you provided":3880,"record ":3881,"ose ":3882,"2ASHA.” State the object and its label using only that context.":3883,"Mira reserved the ":3884,"new time":3885,"Uma reserved the ":3886,"Uma walks through the ":3887,"Uma walk through the ":3888,"Uma for helping ":3889,"Nora opened the ":3890,"Nora opens the ":3891,"Priya reserved the ":3892,"9WEI\nDay: ":3893,"0MIRA. Return exactly the final class PAVO-N220":3894,"0MIRA must belong to.":3895,"0MIRA. PAVO-N220":3896,"11:45. Include a greeting and closing; add no new facts.":3897,"16:05. Include a greeting and closing; add no new facts.":3898,"16:05.” What code, day, and time are named?":3899,"032":3900,"Omar.” Ask one concise clarification question instead of assuming missing details.":3901,"Luis asked for a quiet meeting. ":3902,"Jon.” Ask one concise clarification question instead of assuming missing details.":3903,"Jon.” Offer a friendly one-sentence welcome.":3904,".\nRewrite this as one professional, courteous sentence: “Luis":3905,"Combine the supplied statements into one concise, fluent sentence without dropping any detail: Priya requested ":3906,"046":3907,"Omar asked for a quiet meeting. ":3908,"Omar and propose a meeting at ":3909,"Theo asked for a quiet meeting. ":3910,"4.\nTurn these supplied fields into one natural English sentence without adding information: speaker=Theo; action=thanked; recipient=Nora; reason=help":3911,"meeting-note":3912,"small parcel better.” Ask one concise clarification question instead of assuming missing details.":3913,"019":3914,"need ":3915,"3LUIS-END] the parcel was sealed; [N110":3916,"3LUIS-END] the parcel was sealed.":3917,"3LUIS-MIDDLE] the note was placed inside.":3918,"3LUIS-MIDDLE] the note was placed inside; [N110":3919,"on Monday. Include a greeting and closing; add no new facts.":3920,"in the quiet room. Mira ":3921,"convenient ":3922,"with these notes: thank Uma for helping ":3923,"25.\n":3924," chairs and ":3925,"in the front desk.” Who placed what, and where?":3926,"in the front desk. Uma ":3927,"blue folder. It must reach ":3928,"green notebook. It must reach ":3929," things for Priya":3930," things for Asha":3931," chairs into the garden":3932,"take a moment for your":3933,"Copy this exact uppercase-and-time value with nothing else: THURSDAY|":3934,"Copy this exact uppercase-and-time value with nothing else: TUESDAY|":3935,"Correct the agreement error and return one sentence only: Uma walk through the ":3936,"will collect it on Wednesday.":3937,"The request is underspecified: “Make the small parcel better.” Ask one concise clarification question instead of assuming missing details.":3938,"was ready on Friday.":3939,"were ready on Friday.":3940,"Use only this note to answer. Note: “Uma placed the ":3941,"A new participant says, “Hi, I’m Jon.” Offer a friendly one-sentence welcome.":3942," copies. Luis ":3943,"The request is underspecified: “Change the meeting for Omar.” Ask one concise clarification question instead of assuming missing details.":3944,"The request is underspecified: “Change the meeting for Jon.” Ask one concise clarification question instead of assuming missing details.":3945,"says, “I feel overwhelm":3946,".\nRewrite the sentence with the verb in the past tense: Nora opens the ":3947,"with these notes: tell Nora":3948,"\nTime: 16:05":3949,", with a condensed version to be shared at ":3950,"Hello Jon":3951,"update the record ":3952,"Output only this bracketed text: <green-notebook>":3953,"This will ":3954,". Would ":3955,". Could you please confirm if this new ":3956,"have those ":3957,"eliver":3958,"Mira reserved the reading area for ":3959,"Uma reserved the garden for ":3960,"Uma walks through the front desk ":3961,"Priya reserved the east hall for ":3962,"Luis asked for a quiet meeting. Priya reserved the east hall for ":3963,".\nRewrite this as one professional, courteous sentence: “Luis, send the ":3964,"Omar asked for a quiet meeting. Uma reserved the garden for ":3965,"Theo asked for a quiet meeting. Mira reserved the reading area for ":3966,"meeting-note>":3967,"with these notes: thank Uma for helping Omar and propose a meeting at ":3968,"Correct the agreement error and return one sentence only: Uma walk through the front desk ":3969,"says, “I feel overwhelmed about tomorrow.” Reply warmly in one or two sentences.":3970,"5`.":3971,"8`.":3972,"<blue-folder>":3973,"desi":3974,"gn":3975,"gh ":3976,"ign":3977,"them":3978,". I have ":3979,"ed on ":3980,", Theo":3981,", specifically ":3982,"at 16:05 ":3983,"The blue folder ":3984,"align":3985,"1JON? Say that the answer cannot be known from the information given; do not invent an answer.":3986,"3LUIS. Fix it by ":3987,"3LUIS; PAVO-N220":3988,"3LUIS; all VERI-N220":3989,"3LUIS belongs to LUMA-N220":3990,"3LUIS belong to NORU-N220":3991,"3LUIS belong to VERI-N220":3992,"4NORA.” State the object and its label using only that context.":3993,"4NORA is LUMA-N220":3994,"4NORA, it is VERI-N220":3995,"4NORA, it is NORU-N220":3996,"4NORA. If it is VERI-N220":3997,"4NORA is a NORU-N220":3998,"4NORA is a VERI-N220":3999,"4NORA is a LUMA-N220":4000,"4NORA. Every VERI-N220":4001,"Mira make next week if they have not decided? Say that the answer cannot be known from the information given; do not invent an answer.":4002,"Wei, send the ":4003,"Nora reserved the ":4004,"Nora accommodated by reserving the ":4005,"Priya walks through the ":4006,"Priya walk through the ":4007,"Asha has the ":4008,"5OMAR was reviewed ":4009,"Friday. Include a greeting and closing; add no new facts.":4010,"066":4011,"Jon's meeting?":4012,".\nRewrite this as one professional, courteous sentence: “Wei, send the ":4013,"024":4014,"025":4015,"blue folder arrived ":4016,"blue folder now.”":4017,"Theo says, “I made a mistake and feel bad.” Give a kind, nonjudgmental response in no more than two sentences.":4018,"Jon asked for a quiet meeting. ":4019,"Jon requested a quiet meeting, which ":4020,"6.\nTurn these supplied fields into one natural English sentence without adding information: actor=Priya; action=placed; object=":4021,"small parcel now.”":4022,"0.\nTurn these supplied fields into one natural English sentence without adding information: actor=Mira; action=placed; object=":4023,"0.\nCorrect the agreement error and return one sentence only: Mira walk through the quiet room ":4024,"1.\nTurn these supplied fields into one natural English sentence without adding information: item=N230":4025,"on Friday. Include a greeting and closing; add no new facts.":4026,"left=Jon\nright=Nora":4027,"left=Theo\nright=Mira":4028,"in the east hall.”—who will meet whom and where?":4029,"in the front desk.”—who will meet whom and where?":4030," by Friday. Include a greeting and closing; add no new facts.":4031,"from it and move forward.":4032,"The draft arrived ":4033,"Copy this exact uppercase-and-time value with nothing else: FRIDAY|":4034,"with these notes: ask Omar ":4035,"with these notes: ask Theo ":4036,"Correct the agreement error and return one sentence only: Priya walk through the ":4037,"According to this message only—“Priya will meet Luis ":4038,"According to this message only—“Asha will meet Wei ":4039,". It begins at 09:30.":4040,". It begins at 11:45.":4041,"Combine the supplied statements into one concise, fluent sentence without dropping any detail: The meeting is in the quiet room":4042,"Combine the supplied statements into one concise, fluent sentence without dropping any detail: The meeting is in the reading area":4043,"was ready on Tuesday.":4044,"were ready on Tuesday.":4045,".\nReturn exactly two lines, with no extra text:\nleft=Jon\nright=Nora":4046,".\nReturn exactly two lines, with no extra text:\nleft=Theo\nright=Mira":4047,"Wednesday.”":4048,"says, “I feel tired ":4049,"Which choice will Mira make next week if they have not decided? Say that the answer cannot be known from the information given; do not invent an answer.":4050,"9WEI is ready for ":4051,"cooperation":4052,"Summarize this supplied text in one clear sentence: The small parcel arrived ":4053,"Summarize this supplied text in one clear sentence: The blue folder arrived ":4054," is ready for use ":4055,"Output only this bracketed text: <blue-folder>":4056,", it's completely human to make mistakes, and it's okay to feel bad about them":4057,"learn and ":4058,"-NEXT] Mira read the message.\n[N110":4059,", it's completely human to make mistakes, and it's okay to feel bad about it. What's important is that you learn ":4060,"Priya will meet Luis in the east hall.":4061,"\"Dear Wei":4062,"4NORA-NEXT] Nora read the message; [N110":4063,"2.\nDraft a short, polite email from Asha with these notes: ask Omar ":4064,"ensure we are align":4065,"1.\nDraft a short, polite email from Jon with these notes: tell Nora":4066,"device's code generation process.":4067," things for Mira.” Ask one concise clarification question instead of assuming missing details.":4068,"joining the ":4069," will produce tomorrow. The generation of random codes is typically based on internal algorithms and cannot be predicted without specific knowledge of the device's code generation process.":4070,"desired ":4071,"ed on our ":4072,"Nora reserved the quiet room for ":4073,"Priya walks through the reading area ":4074,"Jon asked for a quiet meeting. Nora reserved the quiet room for ":4075,"Jon requested a quiet meeting, which Nora accommodated by reserving the ":4076,"Correct the agreement error and return one sentence only: Priya walk through the reading area ":4077,"According to this message only—“Priya will meet Luis in the east hall.”—who will meet whom and where?":4078,"According to this message only—“Asha will meet Wei in the front desk.”—who will meet whom and where?":4079,"says, “I feel tired about tomorrow.” Reply warmly in one or two sentences.":4080,", it's completely human to make mistakes, and it's okay to feel bad about it. What's important is that you learn from it and move forward.":4081,"ensure we are aligned on our ":4082," W":4083,"! W":4084,"045":4085,"014":4086,"8-01":4087,"Deliver":4088,"oc":4089,"would you ":4090,". Jon ":4091,"elcom":4092,"suits ":4093,"I understand ":4094,"059":4095,"1JON\nDay: ":4096,"7THEO. PAVO-N220":4097,"7THEO, and VERI-N220":4098,"7THEO group is inside VERI-N220":4099,"7THEO is in LUMA-N220":4100,"7THEO is inside NORU-N220":4101,"7THEO\n\nDear Mira":4102,"4NORA-FIRST] the message arrived.":4103,"2ASHA is a NORU-N220":4104,"2ASHA is a VERI-N220":4105,"2ASHA is a LUMA-N220":4106,"2ASHA. Every VERI-N220":4107," that needs to be ":4108,"6PRIYA produce tomorrow? Say that the answer cannot be known from the information given; do not invent an answer.":4109,"6PRIYA-FIRST] the message arrived.":4110,"6PRIYA-FIRST] the message arrived.\n[N110":4111,"8UMA soon.” Ask one concise clarification question instead of assuming missing details.":4112,"Mira moved ":4113,"Uma has the ":4114,"09:30 and ask them to confirm. Include a greeting and closing; add no new facts.":4115,"11:45.”":4116,"11:45 and ask them to confirm. Include a greeting and closing; add no new facts.":4117,"14:20.”":4118,"08:15.”":4119,"065":4120,".\nRewrite this as one professional, courteous sentence: “Theo":4121,"Combine the supplied statements into one concise, fluent sentence without dropping any detail: Uma requested ":4122,"Combine the supplied statements into one concise, fluent sentence without dropping any detail: Priya has the ":4123,"Combine the supplied statements into one concise, fluent sentence without dropping any detail: Uma has the ":4124,"049":4125,"8.\nCombine the supplied statements into one concise, fluent sentence without dropping any detail: The meeting is ":4126,"8.\nThe request is underspecified: “Send N20":4127,"Theo.” Offer a friendly one-sentence welcome.":4128,"021":4129,"blue folder better.” Ask one concise clarification question instead of assuming missing details.":4130,"like to ":4131,"green notebook is N120":4132,"are any ":4133,"013":4134,"Wei asked for a quiet meeting. ":4135,"Wei requested a quiet meeting, and ":4136,"7.\nA new participant says, “Hi, I’m ":4137,",\n\nI hope this message finds you well.\n\nI am writing to kindly ":4138,"on Tuesday. Include a greeting and closing; add no new facts.":4139,"on Wednesday. Include a greeting and closing; add no new facts.":4140,"1JON-END] the parcel was sealed; [N110":4141,"1JON-END] the parcel was sealed.":4142,"1JON-MIDDLE] the note was placed inside.":4143,"1JON-MIDDLE] the note was placed inside; [N110":4144,"7THEO-END] the parcel was sealed; [N110":4145,"7THEO-END] the parcel was sealed.":4146,"7THEO-MIDDLE] the note was placed inside.":4147,"7THEO-MIDDLE] the note was placed inside; [N110":4148,"tick":4149,"left=Omar\nright=Uma":4150,"in the garden.” Who placed what, and where?":4151,"000":4152,"your schedul":4153,"discuss the ":4154," copies to the reading area":4155,"to bring the small parcel ":4156,"project ":4157,"The request is underspecified: “Make the blue folder better.” Ask one concise clarification question instead of assuming missing details.":4158,"Combine the supplied statements into one concise, fluent sentence without dropping any detail: The meeting is in the garden":4159,"Context: “The label on the green notebook is N120":4160,"was ready on Wednesday.":4161,"was ready on Monday.":4162,"were ready on Wednesday.":4163,"were ready on Monday.":4164,"Use only this note to answer. Note: “Nora placed the ":4165,".\nReturn exactly two lines, with no extra text:\nleft=Omar\nright=Uma":4166," copies. Omar ":4167,".\nRewrite this as one professional, courteous sentence: “Move our meeting to 11:45.”":4168,".\nRewrite this as one professional, courteous sentence: “Move our meeting to 14:20.”":4169,".\nRewrite this as one professional, courteous sentence: “Move our meeting to 08:15.”":4170,"reaches Jon ":4171,"does not in":4172,"4NORA-LAST] Nora replied; [N110":4173,"4NORA-LAST] Nora replied.":4174,"6PRIYA-LAST] Priya replied; [N110":4175,"6PRIYA-LAST] Priya replied.":4176,"6PRIYA-NEXT] Priya read the message; [N110":4177,"6PRIYA-NEXT] Priya read the message.\n[N110":4178,"delivered to ":4179,"I'm sorry to hear that you're feeling this way, but ":4180,"Hello, Theo":4181,"Small Parcel Deliver":4182," things for Nora.” Ask one concise clarification question instead of assuming missing details.":4183,"and Request for N170":4184," chairs into the front desk. Jon ":4185,"7.\nDraft a short, polite email from Theo with these notes: tell Mira that N170":4186,"convenient for you":4187," things for Priya.” Ask one concise clarification question instead of assuming missing details.":4188,"Hello Jon, welcome to our community!":4189,"joining the meeting ":4190,"! Welcom":4191,"would you like to ":4192,"suits your schedul":4193,".\nRewrite this as one professional, courteous sentence: “Theo, send the ":4194,"8.\nCombine the supplied statements into one concise, fluent sentence without dropping any detail: The meeting is in the front desk":4195,"Wei asked for a quiet meeting. Asha reserved the front desk for ":4196,"7.\nA new participant says, “Hi, I’m Theo.” Offer a friendly one-sentence welcome.":4197,"Hello, Theo! Welcom":4198,"Hello, Theo! Welcome to our community":4199,"\"Jon":4200,"t to ":4201,"t must reach ":4202,"s about ":4203,"reorganiz":4204,". Omar ":4205,"058":4206,"4NORA-FIRST] the message arrived.\n[N110":4207,"2ASHA-FIRST] the message arrived.":4208,"2ASHA-FIRST] the message arrived.\n[N110":4209,"2ASHA-DONE] the conversation ended; [N110":4210,"2ASHA-DONE] the conversation ended.":4211,"6PRIYA-DONE] the conversation ended; [N110":4212,"6PRIYA-DONE] the conversation ended.":4213,"8UMA-FIRST] the message arrived.":4214,"8UMA-FIRST] the message arrived.\n[N110":4215,"Mira opened the ":4216,"Mira opens the ":4217,"Uma make next week if they have not decided? Say that the answer cannot be known from the information given; do not invent an answer.":4218,"Wei, it's completely human to make mistakes, and it's okay to feel bad about it":4219,"Nora walks through the ":4220,"Nora walk through the ":4221,"Nora make next week if they have not decided? Say that the answer cannot be known from the information given; do not invent an answer.":4222,"Priya for helping ":4223,"Asha walks through the ":4224,"Asha walk through the ":4225,"Asha for helping ":4226,"t. It must reach ":4227,"5OMAR. PAVO-N220":4228,"5OMAR, and VERI-N220":4229,"5OMAR group is inside VERI-N220":4230,"5OMAR is in LUMA-N220":4231,"5OMAR is inside NORU-N220":4232,"9WEI; PAVO-N220":4233,"9WEI; all VERI-N220":4234,"0MIRA must belong to the class NORU-N220":4235,"09:30.”":4236,"11:45?\"":4237,"14:20 and ask them to confirm. Include a greeting and closing; add no new facts.":4238,"16:05 and ask them to confirm. Include a greeting and closing; add no new facts.":4239,"Friday at ":4240,"Monday. Include a greeting and closing; add no new facts.":4241,"035":4242,"Omar.” Offer a friendly one-sentence welcome.":4243,"Omar, welcome to our community!":4244,"Luis for the ":4245,"Luis and propose a meeting at ":4246,"Jon, send the ":4247,"2.\nCorrect the agreement error and return one sentence only: ":4248,".\nRewrite this as one professional, courteous sentence: “Jon, send the ":4249,"Combine the supplied statements into one concise, fluent sentence without dropping any detail: Asha requested ":4250,"What new date and time ":4251,"040":4252,"048":4253,"8.\nWhich choice will ":4254,"8.\nUse only this note to answer. Note: “Uma placed the ":4255,"Luis.” Ask one concise clarification question instead of assuming missing details.":4256,"Luis.” Offer a friendly one-sentence welcome.":4257,"4.\nUse only this note to answer. Note: “Nora placed the ":4258,"Wei says, “I made a mistake and feel bad.” Give a kind, nonjudgmental response in no more than two sentences.":4259,"7.\nEdit only what is needed to make this grammatical: The two visitors is waiting ":4260,"3.\nA new participant says, “Hi, I’m ":4261,"3.\nThe request is underspecified: “Change the meeting for ":4262,"3.\nEdit only what is needed to make this grammatical: The two visitors is waiting ":4263,"1.\nThe request is underspecified: “Change the meeting for Jon.” Ask one concise clarification question instead of assuming missing details.":4264,"3LUIS-TWO] the door was locked; [N110":4265,"3LUIS-TWO] the door was locked.":4266,"3LUIS-THREE] the lights went out.":4267,"3LUIS-THREE] the lights went out; [N110":4268,"Thursday. Include a greeting and closing; add no new facts.":4269,"our meeting time ":4270,"in the quiet room.” Who placed what, and where?":4271,"schedule the meeting for ":4272,"left=Luis\nright=Priya":4273,"with these notes: thank Priya for helping ":4274,"with these notes: thank Asha for helping ":4275,"with these notes: thank Luis for the ":4276,"draft. It must reach ":4277,"in the reading area.”—who will meet whom and where?":4278," copies to the front desk":4279," chairs into the quiet room":4280,"to bring the meeting note ":4281,"arranged them before 09:30.":4282,"arranged them before 08:15.":4283,"Correct the agreement error and return one sentence only: Nora walk through the ":4284,"According to this message only—“Mira will meet Theo ":4285,"Use only this note to answer. Note: “Mira placed the ":4286,".\nReturn exactly two lines, with no extra text:\nleft=Luis\nright=Priya":4287,"A new participant says, “Hi, I’m Omar.” Offer a friendly one-sentence welcome.":4288," copies. Wei ":4289,".\nRewrite this as one professional, courteous sentence: “Move our meeting to 09:30.”":4290,"Monday.”":4291,"Tuesday.”":4292,".\nRewrite the sentence with the verb in the past tense: Mira opens the ":4293,"The two visitors are waiting in the east hall.":4294,"The two visitors are waiting in the reading area.":4295,"Confirmation for N170":4296,". A shorter version will be shared at 09:30.":4297,"Which choice will Nora make next week if they have not decided? Say that the answer cannot be known from the information given; do not invent an answer.":4298,"placed a green notebook ":4299,"Hello Luis":4300,"Hello Omar, welcome to our community!":4301,"Wei and propose a meeting at ":4302,"sent to me ":4303,"9WEI belongs to LUMA-N220":4304,"Subject: Appreciation for the Green Notebook ":4305,"9WEI belong to NORU-N220":4306,"9WEI belong to VERI-N220":4307,"2ASHA-LAST] Asha replied; [N110":4308,"2ASHA-LAST] Asha replied.":4309,"2ASHA-NEXT] Asha read the message; [N110":4310,"2ASHA-NEXT] Asha read the message.\n[N110":4311,"2ASHA-PREP] Asha opened the door.":4312,"6PRIYA-PREP] Priya opened the door.":4313,"8UMA-LAST] Uma replied; [N110":4314,"8UMA-LAST] Uma replied.":4315,"8UMA-NEXT] Uma read the message; [N110":4316,"8UMA-NEXT] Uma read the message;\n[N110":4317,"Mira will meet Theo in the reading area.":4318,"Combine the supplied statements into one concise, fluent sentence without dropping any detail: Nora has the ":4319,"request that you bring the ":4320,"Subject: Meeting Request and Appreciation\n\nDear Uma":4321,"for our upcoming meeting":4322," documen":4323,"\"Please could you update the N18":4324," chairs into the east hall. Omar ":4325,"The green notebook is scheduled to be collected by ":4326,"2.\nSummarize this supplied text in one clear sentence: Asha moved ":4327,"would you like to schedule the meeting for ":4328,"reorganized the ":4329,"Nora walks through the garden ":4330,"Asha walks through the east hall ":4331,"Asha walk through the east hall ":4332,"2.\nCorrect the agreement error and return one sentence only: Asha walk through the east hall ":4333,"What new date and time would you like to schedule the meeting for ":4334,"8.\nWhich choice will Uma make next week if they have not decided? Say that the answer cannot be known from the information given; do not invent an answer.":4335,"7.\nEdit only what is needed to make this grammatical: The two visitors is waiting in the reading area.":4336,"3.\nA new participant says, “Hi, I’m Luis.” Offer a friendly one-sentence welcome.":4337,"3.\nThe request is underspecified: “Change the meeting for Luis.” Ask one concise clarification question instead of assuming missing details.":4338,"3.\nEdit only what is needed to make this grammatical: The two visitors is waiting in the east hall.":4339,"with these notes: thank Priya for helping Luis and propose a meeting at ":4340,"with these notes: thank Asha for helping Wei and propose a meeting at ":4341,"Correct the agreement error and return one sentence only: Nora walk through the garden ":4342,"According to this message only—“Mira will meet Theo in the reading area.”—who will meet whom and where?":4343,"\"I'm sorry to hear that you're feeling ":4344,"002":4345,"6`.":4346,"<small-parcel>":4347,"this":4348,". Theo ":4349,"ary ":4350,"for you ":4351,"conten":4352,"055":4353,"1JON; PAVO-N220":4354,"1JON; all VERI-N220":4355,"1JON belongs to LUMA-N220":4356,"1JON belong to NORU-N220":4357,"1JON belong to VERI-N220":4358,"3LUIS. PAVO-N220":4359,"3LUIS, and VERI-N220":4360,"3LUIS group is inside VERI-N220":4361,"3LUIS is in LUMA-N220":4362,"3LUIS is inside NORU-N220":4363,"detailed ":4364,"find ":4365,"8UMA.” State the object and its label using only that context.":4366,"5OMAR moved to ":4367,"0MIRA produce tomorrow? Say that the answer cannot be known from the information given; do not invent an answer.":4368,"09:30. Include a greeting and closing; add no new facts.":4369,"08:15. Include a greeting and closing; add no new facts.":4370,"033":4371,"037":4372,"Omar, it's completely human to make mistakes, and it's okay to feel bad about them":4373,"068":4374,"2.\nUse only this note to answer. Note: “":4375,"8.\nCorrect the agreement error and return one sentence only: Uma walk through the front desk ":4376,"8.\nCombine the supplied statements into one concise, fluent sentence without dropping any detail: Uma has the ":4377,"027":4378,"Omar says, “I made a mistake and feel bad.” Give a kind, nonjudgmental response in no more than two sentences.":4379,"Jon says, “I made a mistake and feel bad.” Give a kind, nonjudgmental response in no more than two sentences.":4380,"6.\nCombine the supplied statements into one concise, fluent sentence without dropping any detail: The meeting is in the reading area":4381,"7.\nSummarize this supplied text in one clear sentence: Draft N15":4382,"Uma?":4383,"1.\nA new participant says, “Hi, I’m Jon.” Offer a friendly one-sentence welcome.":4384,"meeting note now.”":4385,"meeting note better.” Ask one concise clarification question instead of assuming missing details.":4386,"1JON-TWO] the door was locked; [N110":4387,"1JON-TWO] the door was locked.":4388,"1JON-THREE] the lights went out.":4389,"1JON-THREE] the lights went out; [N110":4390,"arranging them ":4391,"meeting note. It must reach ":4392,"in the reading area.” Who placed what, and where?":4393,"in the east hall.” Who placed what, and where?":4394,"y this Friday":4395,"small parcel. It must reach ":4396,"ement":4397," chairs in the ":4398,"got this":4399,"arranged them before 14:20.":4400,"Copy this exact uppercase-and-time value with nothing else: MONDAY|":4401,"with these notes: ask Wei ":4402,"will collect it on Friday.":4403,"The request is underspecified: “Make the meeting note better.” Ask one concise clarification question instead of assuming missing details.":4404,"Use only this note to answer. Note: “Priya placed the ":4405,"says, “I feel frustrated ":4406,"with these notes: tell Priya":4407,". A shorter version will be shared at 14:20.":4408,". A shorter version will be shared at 11:45.":4409,"placed a blue folder ":4410,"\"You're welcome, Uma":4411,"Output only this bracketed text: <small-parcel>":4412,"on Tuesday, with a condensed version to be released ":4413,"possible":4414,"\n\n\nDear Wei":4415,"ve got this":4416,"2.\nAsha says, “Thank you for listening.” Respond naturally and briefly.":4417,"6.\nDraft a short, polite email from Priya with these notes: thank Wei for the ":4418,"8.\nUma says, “Thank you for listening.” Respond naturally and briefly.":4419,".\n\n\nThank you for your attention to this request":4420,"service ":4421,". You've got this":4422,"3.\nDraft a short, polite email from Luis with these notes: tell Priya":4423,"your availability for this new time":4424,"necessary ":4425,"my schedule and will be joining the meeting ":4426,"To ensure I provide the most relevant assistance, could you please specify the ":4427," things for Asha.” Ask one concise clarification question instead of assuming missing details.":4428," chairs into the garden. Theo ":4429,"Jon requested a quiet meeting, which Nora accommodated by reserving the quiet room for ":4430,"ticket ":4431,"Hello Luis, welcome to our community!":4432,"2.\nUse only this note to answer. Note: “Asha placed the ":4433,"arranging them before ":4434,"says, “I feel frustrated about tomorrow.” Reply warmly in one or two sentences.":4435,". You've got this!":4436,"1.\nReturn exactly two lines, with no extra text:\nleft=Jon\nright=Nora":4437,"65.\n":4438,"every":4439,"ion ":4440,"t of ":4441,". Priya ":4442,". Asha ":4443,". Luis ":4444,"y were ":4445,"a par":4446,"on Meeting Note":4447,"you.\"":4448,"056":4449,"7THEO\nDay: ":4450,"3LUIS\n\nDear Priya":4451,"4NORA soon.” Ask one concise clarification question instead of assuming missing details.":4452,"6PRIYA soon.” Ask one concise clarification question instead of assuming missing details.":4453,"8UMA produce tomorrow? Say that the answer cannot be known from the information given; do not invent an answer.":4454,"8UMA is LUMA-N220":4455,"8UMA, it is VERI-N220":4456,"8UMA, it is NORU-N220":4457,"8UMA. If it is VERI-N220":4458,"Mira requested ":4459,"Mira for helping ":4460,"Mira in the quiet room ":4461,"Uma opened the ":4462,"Uma opens the ":4463,"Wei.” Ask one concise clarification question instead of assuming missing details.":4464,"Nora requested ":4465,"Priya opened the ":4466,"Priya moved ":4467,"Priya opens the ":4468,"Follow-":4469,"ank you.\"":4470,", thank you.\"":4471,"information given.":4472,"help ":4473,"be available ":4474,"14:20; day=":4475,"14:20.” What code, day, and time are named?":4476,"s you provided":4477,"08:15.” What code, day, and time are named?":4478,"Monday at ":4479,"Tuesday. Include a greeting and closing; add no new facts.":4480,"2.\nCombine the supplied statements into one concise, fluent sentence without dropping any detail: ":4481,"Subject: Follow-":4482,"Summarize this supplied text in one clear sentence: Mira moved ":4483,"blue folder and ask for N170":4484,"blue folder you sent ":4485,"Theo and propose a meeting at ":4486,"Jon for the ":4487,"0.\nCombine the supplied statements into one concise, fluent sentence without dropping any detail: Mira has the ":4488,"wanted to express my gratitude for the ":4489,"9WEI-END] the parcel was sealed; [N110":4490,"9WEI-END] the parcel was sealed.":4491,"9WEI-MIDDLE] the note was placed inside.":4492,"9WEI-MIDDLE] the note was placed inside; [N110":4493,"meeting note is N120":4494,"7THEO-TWO] the door was locked; [N110":4495,"7THEO-TWO] the door was locked.":4496,"7THEO-THREE] the lights went out.":4497,"7THEO-THREE] the lights went out; [N110":4498,"in the quiet room.”—who will meet whom and where?":4499,"meeting notes you provided":4500,"with these notes: thank Mira for helping ":4501,"with these notes: thank Jon for the ":4502,"kindly request the ":4503,"in the reading area. Priya ":4504,"in the east hall. Asha ":4505,"s and Request for ":4506," by Tuesday. Include a greeting and closing; add no new facts.":4507,"casion ":4508,"ture":4509,"; state=ready; time=14:20; day=":4510," chairs into the reading area":4511,"attention to ":4512,"According to this message only—“Nora will meet Jon ":4513,"contribu":4514,". It begins at 14:20.":4515,"Context: “The label on the meeting note is N120":4516,"on Thursday, with a condensed version to be released ":4517," copies. Theo ":4518," copies. Jon ":4519,"The request is underspecified: “Change the meeting for Wei.” Ask one concise clarification question instead of assuming missing details.":4520,".\nRewrite the sentence with the verb in the past tense: Uma opens the ":4521,".\nRewrite the sentence with the verb in the past tense: Priya opens the ":4522,". The new review day is Thursday.":4523,"The two visitors are waiting in the garden.":4524,"Edit only what is needed to make this grammatical: The two visitors is waiting in the garden.":4525,"\nTime: 14:20":4526,"\nTime: 08:15":4527,", could you please forward the ":4528,"\"You're welcome, Priya":4529,"\"You're welcome, Nora":4530,"and is now ":4531,"delayed and is now ":4532,"must ensure the ":4533," will produce tomorrow. The generation of random codes is typically managed by the device's internal system and is not predictable based on the ":4534,"Subject: Appreciation and Meeting Proposal\n\nDear Asha":4535,"processing ":4536,". They were ":4537,"Combine the supplied statements into one concise, fluent sentence without dropping any detail: Mira requested ":4538,"Combine the supplied statements into one concise, fluent sentence without dropping any detail: Nora requested ":4539,"Nora will meet Jon in the quiet room.":4540,"learning and growing.":4541,"Draft a short, polite email from Omar with these notes: thank Uma for helping Omar and propose a meeting at ":4542," copies to the garden.”":4543,"feelings":4544,"8.\nSummarize this supplied text in one clear sentence: Uma moved ":4545," chairs and arranging them before ":4546,"take a moment for yourself":4547,"1.\nDraft a short, polite email from Jon with these notes: tell Nora that N170":4548,"occasion ":4549," chairs into the quiet room. Luis ":4550,"detailed meeting notes you provided":4551,"t of learning and growing.":4552,"a part of learning and growing.":4553,"on Meeting Notes and Request for ":4554,"2.\nCombine the supplied statements into one concise, fluent sentence without dropping any detail: Asha has the ":4555,"blue folder you sent over":4556,"with these notes: thank Mira for helping Theo and propose a meeting at ":4557,"According to this message only—“Nora will meet Jon in the quiet room.”—who will meet whom and where?":4558,"delayed and is now scheduled for ":4559," will produce tomorrow. The generation of random codes is typically managed by the device's internal system and is not predictable based on the information given.":4560,". They were incredibly helpful ":4561,"occasion for ":4562,"detailed meeting notes you provided. They were incredibly helpful ":4563,"on Meeting Notes and Request for Document":4564,"36.\n":4565,"320MIRA":4566,"3.\nReason only from these nonce statements: All LUMA-N220":4567,"69.\n":4568,"85.\n":4569,"am":4570,"han":4571,"k.":4572,"kee":4573,"remember":4574,"enhan":4575,". Wei ":4576,". This will ":4577,"will make ":4578,"7THEO.":4579,"7THEO must belong to NORU-N220":4580,"7THEO; PAVO-N220":4581,"7THEO; all VERI-N220":4582,"7THEO belongs to LUMA-N220":4583,"7THEO belong to NORU-N220":4584,"7THEO belong to VERI-N220":4585,"4NORA?":4586,"2ASHA must belong to NORU-N220":4587,"2ASHA is LUMA-N220":4588,"2ASHA, it is VERI-N220":4589,"2ASHA, it is NORU-N220":4590,"2ASHA. If it is VERI-N220":4591,"2ASHA soon.” Ask one concise clarification question instead of assuming missing details.":4592,"8UMA?":4593,"8UMA-DONE] the conversation ended; [N110":4594,"8UMA-DONE] the conversation ended.":4595,"Uma must ensure that the ":4596,"Wei.” Offer a friendly one-sentence welcome.":4597,"Wei, welcome to our community!":4598,"Nora for helping ":4599,"Asha opened the ":4600,"Asha opens the ":4601,"time suits your schedul":4602,"e, or if there's another time that would be more convenient.\n\nThank you once again for your ":4603,"Complete this English practice task. Reference P1A-00-0":4604,"11:45.” What code, day, and time are named?":4605,"16:05.”":4606,"Wednesday at ":4607,"Luis requested a quiet meeting, and ":4608,"063":4609,"2.\nCombine the supplied statements into one concise, fluent sentence without dropping any detail: The meeting is ":4610,"2.\nThe request is underspecified: “Send N20":4611,"Summarize this supplied text in one clear sentence: Omar asked for a quiet meeting. Uma reserved the garden for ":4612,"Summarize this supplied text in one clear sentence: Priya moved ":4613,"022":4614,"Omar for the ":4615,"Jon and propose a meeting at ":4616,"4.\nCombine the supplied statements into one concise, fluent sentence without dropping any detail: Nora has the ":4617,"4.\nCorrect the agreement error and return one sentence only: Nora walk through the garden ":4618,"Priya?":4619,"1.\nSummarize this supplied text in one clear sentence: Draft N15":4620,"meeting notes at ":4621,"The meeting in the east hall ":4622,"left=Wei\nright=Asha":4623,"with these notes: thank Nora for helping ":4624,"with these notes: thank Omar for the ":4625,"next week.":4626,". It begins at 16:05.":4627,".\nReturn exactly two lines, with no extra text:\nleft=Wei\nright=Asha":4628,"A new participant says, “Hi, I’m Wei.” Offer a friendly one-sentence welcome.":4629,".\nRewrite this as one professional, courteous sentence: “Move our meeting to 16:05.”":4630,"says, “I feel uncertain ":4631,"and ask for N1705":4632,".\nRewrite the sentence with the verb in the past tense: Asha opens the ":4633,"The two visitors are waiting in the quiet room.":4634,"Edit only what is needed to make this grammatical: The two visitors is waiting in the quiet room.":4635,"\nTime: 11:45":4636,"Hello Wei, welcome to our community!":4637,"discuss our next steps and ":4638," copies, and Omar ":4639,"grow ":4640,", I understand ":4641," is delayed until Monday.":4642,"Could you please specify the exact nature of the document or information ":4643,".\nDraft a short, polite email from Mira ":4644,"2.\nDraft a short, polite email from Asha with these notes: thank Omar for the ":4645,"6.\nDraft a short, polite email from Priya with these notes: ask Wei ":4646,"8UMA-PREP] Uma opened the door.":4647,"context or occasion for ":4648,"4.\nSummarize this supplied text in one clear sentence: Nora moved ":4649,"work for you? Please let me know if this time suits your schedul":4650,"learn and grow ":4651," chairs into the reading area. Wei ":4652,"attention to detail ":4653,"keep ":4654,"will make next week.":4655,"Luis requested a quiet meeting, and Priya ":4656,"2.\nCombine the supplied statements into one concise, fluent sentence without dropping any detail: The meeting is in the east hall":4657,"meeting notes at your earliest convenience?\"":4658,"with these notes: thank Nora for helping Jon and propose a meeting at ":4659,"says, “I feel uncertain about tomorrow.” Reply warmly in one or two sentences.":4660,"work for you? Please let me know if this time suits your schedule, or if there's another time that would be more convenient.\n\nThank you once again for your ":4661,"405OMAR":4662,"91).\n":4663,"; the":4664,"Up ":4665,"ch ":4666,"y're ":4667,"and Wei ":4668,"ried about tomorrow.” Reply warmly in one or two sentences.":4669,"ular ":4670,"050":4671,"7THEO by ":4672,"7THEO is ready for pickup ":4673,"3LUIS. The new review day is ":4674,"6PRIYA.” State the object and its label using only that context.":4675,"Priya and Wei ":4676,"5OMAR? Say that the answer cannot be known from the information given; do not invent an answer.":4677,"0MIRA is a NORU-N220":4678,"Work carefully from the text below. Case P1A-08-0":4679,"Wednesday. Include a greeting and closing; add no new facts.":4680,"031":4681,"draft and ask for N170":4682,"Luis will bring ":4683,"069":4684,"042":4685,"043":4686,"044":4687,"I'm glad I could ":4688,"9WEI entry by ":4689,"Theo for the ":4690,"4.\nWhich choice will Nora make next week if they have not decided? Say that the answer cannot be known from the information given; do not invent an answer.":4691,"6.\nThe request is underspecified: “Send N20":4692,"017":4693,"3.\nCombine the supplied statements into one concise, fluent sentence without dropping any detail: There is a delay for N16":4694,"meeting notes ":4695,"with these notes: thank Theo for the ":4696,"draft, ":4697,"dispat":4698,"worried about tomorrow.” Reply warmly in one or two sentences.":4699,"have been ":4700,"truc":4701,"Friday?\"":4702,"particular ":4703,"Fix the sentence and give no explanation: Wei and Asha ":4704,"says, “I feel worried about tomorrow.” Reply warmly in one or two sentences.":4705,"The two visitors are waiting in the front desk.":4706,"Edit only what is needed to make this grammatical: The two visitors is waiting in the front desk.":4707,"make mistakes; the":4708,". A shorter version will be shared at 16:05.":4709,",\n\nI hope this message finds you well. I am writing to ":4710,"would be greatly appreciated.\n\n\nThank you for your attention to this request":4711,"project. Your expertise and support have been ":4712,". Remember, it's okay to have those ":4713,",\n\nI hope this message finds you well.\n\nI wanted to take a moment to express my sincere gratitude for your assistance with the project. Your expertise and support have been ":4714,", could you please send the draft ":4715,"I'm sorry to hear that you're feeling this way, ":4716,". What's important is that you learn from them ":4717,". Your assistance with this matter would be greatly appreciated.\n\n\nThank you for your attention to this request":4718,"Meeting Notes ":4719," copies to the quiet room?":4720," copies to the quiet room.”":4721,"4.\nDraft a short, polite email from Nora with these notes: ask Theo ":4722,", and I'm here to support you.":4723,"6.\nPriya says, “Thank you for listening.” Respond naturally and briefly.":4724,". It's okay to make mistakes; the":4725," copies to the east hall.”":4726,"at 14:20 ":4727,"The blue folder is scheduled to be collected by ":4728,"I understand that ":4729,"Wei requested a quiet meeting, and Asha ":4730,"Omar, it's completely human to make mistakes, and it's okay to feel bad about them. What's important is that you learn from them ":4731,"3.\nDraft a short, polite email from Luis with these notes: tell Priya that N170":4732,"Subject: Follow-Up ":4733,"y're a part of learning and growing.":4734,". Remember, it's okay to have those feelings":4735,". It's okay to make mistakes; they're a part of learning and growing.":4736,"Subject: Follow-Up on Meeting Notes and Request for Document":4737,"1.\nReason only from these nonce statements: All LUMA-N220":4738,"1.\nRead the supplied memo and answer from it alone: “Review N120":4739,"2.\nReply with exactly these words and no punctuation: N130":4740,"6.\nReason only from these nonce statements: If something is LUMA-N220":4741,"75).\n":4742,"Draf":4743,"k\nLabel: N120":4744,"t\nLabel: N120":4745,"s like ":4746,"ing?":4747,"the desired ":4748,"and Luis ":4749,"on Thursday at ":4750," this coming ":4751,"information.":4752,"053":4753,"1JON\n\nDear Nora":4754,"4NORA-DONE] the conversation ended; [N110":4755,"4NORA-DONE] the conversation ended.":4756,"15.\n":4757,"8UMA must belong to NORU-N220":4758,"8UMA is a NORU-N220":4759,"8UMA is a VERI-N220":4760,"8UMA is a LUMA-N220":4761,"8UMA. Every VERI-N220":4762,"Mira and Luis ":4763,"ounds like ":4764,"0MIRA-DONE] the conversation ended; [N110":4765,"0MIRA-DONE] the conversation ended.":4766,"0MIRA is a VERI-N220":4767,"0MIRA is a LUMA-N220":4768,"en notebook\nLabel: N120":4769,"? I ":4770,"Summarize this supplied text in one clear sentence: Theo asked for a quiet meeting. Mira reserved the reading area for ":4771,"Summarize this supplied text in one clear sentence: Jon asked for a quiet meeting. Nora reserved the quiet room for ":4772,"Summarize this supplied text in one clear sentence: Wei asked for a quiet meeting. Asha reserved the front desk for ":4773,"blue folder is N120":4774,"blue folder reaches ":4775,"green notebook and ask for N170":4776,"green notebook better.” Ask one concise clarification question instead of assuming missing details.":4777,"green notebook at your earliest convenience?\"":4778,"green notebook you provided":4779,"for the reschedul":4780,"4.\nCombine the supplied statements into one concise, fluent sentence without dropping any detail: The meeting is in the garden":4781,"\n\nDear Asha":4782,"small parcel at your earliest convenience?\"":4783,"Mira?":4784,"1.\nCombine the supplied statements into one concise, fluent sentence without dropping any detail: There is a delay for N16":4785,"1.\nEdit only what is needed to make this grammatical: The two visitors is waiting in the quiet room.":4786,"with the new review day ":4787,"propose a meeting to ":4788,"which you need to ":4789,"will collect it on Monday.":4790,"The request is underspecified: “Make the green notebook better.” Ask one concise clarification question instead of assuming missing details.":4791,"Context: “The label on the blue folder is N120":4792,"was ready on Thursday.":4793,"were ready on Thursday.":4794,", I would like to propose a meeting to ":4795,"with these notes: tell Uma":4796,"delayed, ":4797,"new date and time for the reschedul":4798,"Use only the stated information for case P1S-ABS-02":4799,"Subject: Request for Green Notebook ":4800,"Answer this self-contained uncertainty check. Reference P1S-ABS-02":4801,"Respond to the bounded request without inventing missing facts. Ticket P1S-ABS-02":4802,"Object: Gre":4803,"Object: Draf":4804,"4NORA-NEXT] Nora read the message.\n[N110":4805,"8.\nDraft a short, polite email from Uma with these notes: thank Jon for the ":4806,". Your assistance with this matter would be greatly appreciated.\n\nThank you for your ":4807,"4.\nDraft a short, polite email from Nora with these notes: thank Theo for the ":4808,"0MIRA-PREP] Mira opened the door.":4809,"4NORA-PREP] Nora opened the door.":4810,", please ensure the ":4811," has been delayed, ":4812,", sounds like ":4813,"Could you please specify the current date and time of the meeting scheduled for ":4814,"help, and I look forward to our continu":4815,"allow ":4816,"inform you that I have updated my meeting time ":4817,"s about the ":4818,"enhance":4819,"the desired new date and time for the reschedul":4820,"green notebook you provided. It's ":4821,"with the new review day set for ":4822,"Object: Green notebook\nLabel: N120":4823,"Object: Draft\nLabel: N120":4824," has been delayed, with the new review day set for ":4825,"the desired new date and time for the rescheduling?":4826,"\"Omar":4827,"220MIRA":4828,"520MIRA":4829,"9-01":4830,"99).\n":4831,"AM":4832,"Lo":4833,"igh":4834,"e for the ":4835,"regard":4836,"a clear ":4837,"and Theo ":4838,"and provided ":4839,", without ":4840,"to Review ":4841,"054":4842,"3LUIS ":4843,"3LUIS\nDay: ":4844,"Nora in the garden ":4845,"Nora and Theo ":4846,"0MIRA. Every VERI-N220":4847,"14:20. Include a greeting and closing; add no new facts.":4848,"? Your ":4849,"brough":4850,"Tuesday at ":4851,"Subject: Request ":4852,"Theo.” Ask one concise clarification question instead of assuming missing details.":4853,"blue folder at your earliest convenience?\"":4854,"4.\nThe request is underspecified: “Send N20":4855,"ready and ":4856,".\n\nBest regards,\n\nTheo":4857,"7.\nThe request is underspecified: “Change the meeting for ":4858,"0.\nUse only this note to answer. Note: “Mira placed the ":4859,"Asha?":4860,"meeting note arrived ":4861,"meeting note and ask for N170":4862,"390MIRA":4863,"Use only the supplied material for item P1A-10-0":4864,"better, without ":4865,"Fix the sentence and give no explanation: Theo and Mira ":4866,"Fix the sentence and give no explanation: Jon and Nora ":4867,"Monday?\"":4868,"understanding ":4869,"Summarize this supplied text in one clear sentence: The meeting note arrived ":4870,"Subject: Meeting Confirmation for N170":4871,"on Wednesday, with a condensed version to be released ":4872,",\n\n\nI hope this message finds you well.\n\n\n":4873,"prompt re":4874,"4.\nNora says, “Thank you for listening.” Respond naturally and briefly.":4875,"booked the east hall for ":4876,"0.\nDraft a short, polite email from Mira with these notes: thank Luis for the ":4877,", specifically N170":4878," copies to the reading area.”":4879,"reorganized the reading area ":4880,"\n\n\nDear Wei,\n\n\nI hope this message finds you well. I ":4881,"detailed meeting notes you provided. They were incredibly helpful and provided ":4882,"context or occasion for which you need to ":4883,"Luis requested a quiet meeting, and Priya booked the east hall for ":4884,"ch of the ":4885,"Priya and Wei reorganized the reading area ":4886,"dispatch of the ":4887,"help, and I look forward to our continued collaboration.\n\nBest regards,\n\n":4888,"Looking ":4889,"a clear understanding ":4890,"to Review Draft ":4891,"brought ":4892,"Subject: Request to Review Draft ":4893,"7.\nThe request is underspecified: “Change the meeting for Theo.” Ask one concise clarification question instead of assuming missing details.":4894,"better, without assum":4895,"detailed meeting notes you provided. They were incredibly helpful and provided a clear understanding ":4896,"1 cop":4897,"2.\nReason only from these nonce statements: Every LUMA-N220":4898,"3.\nReturn exactly two lines, with no extra text:\nleft=Luis\nright=Priya":4899,"4.\nReply with exactly these words and no punctuation: N130":4900,"7.\nReturn exactly two plain-text lines and no Markdown. The first line must be `name: Theo` and the second line must be `count: ":4901,"bmis":4902,"ded ":4903,"tou":4904,"y, and ":4905,"e time ":4906,"ther":4907,"another time that would be more convenient.\n\nThank you once again for your ":4908,"is another time that would be more convenient.\n\nThank you once again for your ":4909,"on as ":4910,"tended ":4911,"send":4912,"one mak":4913,"as so":4914,"proce":4915,"es mistakes":4916,"1JON. Fix it by ":4917,"7THEO as the information given ":4918,"garden be":4919,"2ASHA?":4920,"Mira says, “Thank you for listening.” Respond naturally and briefly.":4921,",\n\nHello":4922,"Asha in the east hall ":4923,"Read the supplied context, then answer. Ticket P1A-10-0":4924,"5OMAR; PAVO-N220":4925,"5OMAR; all VERI-N220":4926,"5OMAR belongs to LUMA-N220":4927,"5OMAR belong to NORU-N220":4928,"5OMAR belong to VERI-N220":4929,"Work carefully from the text below. Case P1A-00-0":4930,"Handle this language task without outside facts. Ref P1A-04-0":4931,"Complete this English practice task. Reference P1A-08-0":4932,"09:30.” What code, day, and time are named?":4933,"Use only the supplied material for item P1A-09-0":4934,"08:15 and ask them to confirm. Include a greeting and closing; add no new facts.":4935,"draft at 14:20.":4936,"draft reaches ":4937,"061":4938,"062":4939,"4.\nWhat exact random code will device N70":4940,"6.\nUse only this note to answer. Note: “Priya placed the ":4941,".\n\nBest regards,\n\nLuis":4942,"7.\nWhat exact number is hidden behind the closed card labeled N70":4943,"3.\nSummarize this supplied text in one clear sentence: Draft N15":4944,"1.\nWithout seeing the sealed note, what sentence is written inside it? Say that the answer cannot be known from the information given; do not invent an answer.":4945,"9.\nSummarize this supplied text in one clear sentence: Draft N15":4946,"9.\nWhat exact number is hidden behind the closed card labeled N70":4947,"prep":4948,"350MIRA":4949,"The meeting in the quiet room ":4950,"007":4951,". Your contribu":4952,"5OMAR-TWO] the door was locked; [N110":4953,"5OMAR-TWO] the door was locked.":4954,"5OMAR-THREE] the lights went out.":4955,"5OMAR-THREE] the lights went out; [N110":4956,"that you're ":4957,"day at 11:45.":4958,"time works for you ":4959,"is a new ":4960,"timel":4961,"Fix the sentence and give no explanation: Omar and Uma ":4962,"with these notes: tell Asha":4963,"\nTime: 09:30":4964,". A shorter version will be shared at 08:15.":4965,"\"You're welcome, Mira":4966,"Use only the stated information for case P1S-ABS":4967,"Answer this self-contained uncertainty check. Reference P1S-ABS":4968,"State clearly when the requested detail is unknowable. Item P1S-ABS-02":4969,"I'm sorry, but I cannot provide the exact number hidden behind the closed card labeled N70":4970,". What's important is that you're ":4971,"Could you please bring 6":4972,"7THEO was reviewed on Monday":4973,"change ":4974,",\n\nI hope this message finds you well.\n\nI am writing to inform you that I have had to adjus":4975,"\n\nDear Luis,\n\nI hope this message finds you well.\n\nI wanted to express my gratitude for the ":4976,"booked the front desk for ":4977," copies of the document are brought ":4978,"if there is another time that would be more convenient.\n\nThank you once again for your ":4979,"time is convenient for you":4980,"y this coming Wednesday":4981,"how we ":4982,",\n\nI hope this message finds you well.\n\nI wanted to take a moment to express my sincere gratitude for the assistance you provided me recently. Your support has been invaluable, and I am truly thankful for your help":4983,"Small Parcel Delivery ":4984,"everyone mak":4985,"blue folder you sent over. It was very thoughtful of you":4986,"discuss our next steps and further ":4987,"Wei requested a quiet meeting, and Asha booked the front desk for ":4988,", I would like to propose a meeting to discuss our next steps and further ":4989,"with these notes: tell Uma that N170":4990,"Priya and Wei reorganized the reading area by moving ":4991,"Looking forward to our ":4992,"1 copy, and ":4993,"tough ":4994,"on as possible":4995},"merges":[["e"," "],["t","h"],["t"," "],["d"," "],["i","n"],["o","n"],["s"," "],[" ","th"],["t","e"],["o","r"],["a","n"],["r","e"],["o","u"],["e","n"],[" th","e "],["-","0"],["e","s"],["e","r"],["in","g"],["i","s "],["."," "],["o"," "],["f","or"],["a","s"],["a","r"],[".","\n"],["e","d "],["y"," "],["e","l"],["ing"," "],[":"," "],["a"," "],["o","m"],["t","i"],["p","l"],["P","1"],["th","e "],["e","t"],["i","s"],["P1","A"],["an","d "],["l"," "],["a","c"],["2","0"],[","," "],["m","a"],["on"," "],["N","1"],["n","o"],["w","i"],["t","o "],["k"," "],["c","e "],["T","h"],["for"," "],["P1A","-0"],["N","2"],["q","u"],["R","e"],["r","i"],["y","ou"],["-","N2"],["-N2","20"],["a","y"],[";"," "],["s","u"],["1","0"],["l","y "],["e","d"],["a","t "],["r","o"],["qu","es"],["e ","th"],["t ","b"],["wi","th"],["u","r"],["e","x"],["te","m"],["c","on"],["m","e"],["pl","i"],["su","p"],["f","r"],["er"," "],["te","n"],["l","y"],["e th","is "],["pli","ed "],["sup","plied "],["s","en"],["te","x"],["c","l"],["M","A"],["d","ay"],["s","w"],["te","d "],["re","ques"],["[","N1"],["[N1","10"],["ti","on "],["an","sw"],["Th","e "],["i","c"],["you"," "],["ou","t "],["a","l"],["e","c"],["sen","ten"],["I"," "],["ac","t"],["fr","om"],["h"," "],["on","e "],["a","d"],["u","s"],["a","l "],["t","as"],["o","l"],["d","e "],["t","o"],["i","r"],["l","l "],["for","ma"],["a","b"],["with","out "],["et","ing "],["l","is"],["e","t "],["a","g"],["a","s "],["on","ly"],["en","t "],["o","w"],["s","i"],["R","A"],["s ","in"],["en","t"],["n","g"],["en"," "],["E","ng"],["ur","n"],["lis","h "],["Eng","lish "],["reques","ted "],["i","f"],["m","us"],["t","a"],["or","d"],["L","U"],["N","O"],["r"," "],[". ","I"],["i","t"],["R","I"],["as","e "],["f"," "],["s","h"],["tem"," "],[" th","is "],["]"," the "],[".","”"],["i","v"],["e ","only"],["o","p"],["p","ro"],["e",": "],["\n","\n"],["mus","t b"],["l","d "],["d ","the "],["ou","ld "],["r","a"],[". ","Re"],["c","is"],["ti","on"],["re","c"],["l","ab"],[" the ","requested "],["m"," "],["w"," "],["P1A","-"],["O","N"],["3","0"],["es","e "],[" th","ese "],["tas","k "],["f","e"],["; ","[N110"],["l","in"],["R","et"],["in","forma"],["Ret","urn"],["me","eting "],["n","d"],["no","te"],["senten","ce "],["from"," the "],["a","t"],["ar"," "],["a","re"],["lab","el"],["ag","e "],["wi","ll "],["answ","er "],["n","o "],["v","i"],["in"," the "],["er",". "],["ra","f"],["A","V"],["O","-N220"],["P","AV"],["PAV","O-N220"],["T","H"],["s","p"],["an","d"],["g","re"],["p","ar"],["M","I"],["w","as "],["re","ad"],["w","h"],["e","w "],["C","om"],["day","."],["a","i"],["M","ir"],[".\n","\n"],[".\n","Re"],[".”"," "],["c","om"],["f","act"],["fact","s"],["A","S"],["cis","e "],["on","g"],["t",": "],["el","ong"],["u","l"],["e ","the "],["s","ta"],["N","or"],["d","et"],["det","ai"],[" ","ex"],["P","ri"],["Pri","y"],["0","5"],["an","g"],[" ex","act"],["es","s"],["l","u"],["senten","c"],["tem ","P1A-0"],["l","e"],["A","sh"],["W","E"],["m","e "],["or"," "],["o","s"],["v","er"],["a","d the "],["in"," "],["ol","l"],["raf","t "],["elong"," "],["ar","d"],["P1A-","1"],["9","WE"],["c","o"],["MI","RA"],["m","ess"],["e","s "],["si","de "],["1","J"],["1J","ON"],["l","o"],["el"," "],["7","TH"],["E","O"],["7TH","EO"],["d","i"],["3","LU"],["I","S"],["Return"," exact"],["3LU","IS"],["4","NO"],["4NO","RA"],["t","w"],["re","n"],["tw","o "],["O","MA"],["OMA","R"],["to"," this "],["g","ard"],["detai","l"],["ec","if"],["sp","ecif"],["informa","tion "],["u","m"],["e","ar "],["2","AS"],["H","A"],["2AS","HA"],["tex","t"],["ou","r "],["j","ec"],[" ","is "],["no","t "],["b","o"],[" th","at "],["6","P"],["Y","A"],["t ","is "],["RI","YA"],["6P","RIYA"],["tex","t "],["pl","e"],["a","tion "],["R","es"],["4","5"],["k","e "],["p","on"],["Res","pon"],["Respon","d "],["m","ar"],["U","s"],["Us","e only"],["r","ac"],["ou","t"],["1","5"],["f","in"],["p","p"],["fe","ren"],["c","ou"],["s in"," "],["8","U"],["8U","MA"],["must b","e "],["c","an"],["k","no"],["E","RI"],["V","ERI"],["VERI","-N220"],["c","h"],["MA","-N220"],["LU","MA-N220"],["R","U"],["]"," "],["NO","RU"],["NORU","-N220"],["s","e"],["lin","e "],["sta","tem"],["sentenc","e: "],["statem","ent"],["2","-0"],["3","-0"],["v","ent "],["to ","one "],["ic","k"],["s in","to one "],["sentence ","without "],["label","s in "],["must be ","`"],["line ","must be `"],["L","u"],["w","ord"],["pl","ac"],["Th","e"],["Mir","a "],["E","] the "],["o","f "],[", ","and "],["ing ","and "],["feren","ce "],["k",". Re"],["k. Re","ference "],[". ","C"],["n","ew "],["7","0"],["con","text"],[",","\n\n"],["g","iv"],["answ","er. "],["as","t "],["U","m"],["Um","a "],["par","c"],["ed ","the "],["b","jec"],["pl","et"],["ad the ","supplied "],["G","iv"],["ou","nd"],["must b","elong "],["e","i"],["W","ei"],["to"," the "],["plet","e this "],["p","rac"],["ti","ce "],["English ","prac"],["plete this ","English prac"],["tice ","tas"],["plete this English prac","tice tas"],["1","6"],["ould ","you "],["Nor","a "],["b","ound"],["oll","ow"],["bound","ed "],["g","h"],["u","t "],["Use only"," the "],["T","ick"],["Tick","et "],["Priy","a "],["Ash","a "],["0","8"],["1","4"],["Com","plete this English practice tas"],["Complete this English practice tas","k. Reference "],["or","k "],["ple","ase "],["l","i"],["w","ri"],["wri","t"],["t",". I"],["F","ollow"],["for ","you"],[" ","and "],["0","9"],["m","is"],["t","ly "],["rec","tly "],["di","rectly "],["an","k "],["kno","w"],["f","ir"],["i","et "],["for ","i"],["te","ri"],["f","ul"],["forma","t. I"],[" the requested ","word"],["ing and ","format. I"],["Follow"," the requested word"],["Follow the requested word","ing and format. I"],["c","are"],["qu","iet "],["ful","ly "],["W","ork "],["el","ow"],["t b","elow"],["tex","t below"],["from the ","text below"],[". C","ase "],["care","fully "],["Work ","carefully "],["from the text below",". Case "],["Work carefully ","from the text below. Case "],[","," th"],["'","s "],["d","e"],["w","el"],["English ","task "],["to this ","bounded "],["Respond ","directly "],["English task ","("],["to this bounded ","English task ("],["Respond directly ","to this bounded English task ("],[" ","must belong "],["1","1"],["Re","ad the supplied "],["en ","answer. "],["context",", th"],["Read the supplied ","context, th"],["en answer. ","Ticket "],["Read the supplied context, th","en answer. Ticket "],["5","OMAR"],["n"," "],["ma","teri"],["materi","al "],["supplied ","material "],["Use only the ","supplied material "],["Use only the supplied material ","for i"],["ro","om"],["information ","giv"],["er","cise "],["for ","ex"],["e only"," the requested "],["answer ","for ex"],["Giv","e only the requested "],["answer for ex","ercise "],["Give only the requested ","answer for exercise "],["bo","o"],["W","h"],["ould you ","please "],["and","l"],["H","andl"],["l","ang"],["u","age "],["e this ","lang"],["without ","out"],[". Re","f "],["task ","without out"],["facts",". Ref "],["side ","facts. Ref "],["Handl","e this lang"],["uage ","task without out"],["Handle this lang","uage task without out"],["Handle this language task without out","side facts. Ref "],["u","de "],["t","e "],["ti","me "],["tion",": "],["mess","age "],["T","] "],["d","o"],["b","y "],["s",": "],["ed","; [N110"],["ol","d"],["an"," "],["cl","os"],["com","m"],["ac","t "],["ex","act "],["t b","e "],[". ","The "],["no","t be "],["i","tem"],["op","en"],["can","not be "],["information giv","en"],["co","d"],["on","ce "],["e",", "],["h","el"],["hel","p"],[")",".\n"],["note","boo"],["n ","from the "],["know","n from the "],["cannot be ","known from the "],["cannot be known from the ","information given"],["lu","e "],["f","old"],["9WE","I"],["b","e "],["n","at"],["-0","3"],["nat","ur"],["a","d "],["cl","as"],["-0","6"],["0","MIRA"],[" th","e"],["-0","2"],["no","te "],["t","="],["t ","re"],["-0","5"],["w","ould "],["u","nd"],["ma","ll "],["und","er"],["parc","el "],["D","raft "],["a","y "],["n","a"],["from"," "],["clas","s "],["Work carefully from the text below. Case ","P1A-0"],["en ","noteboo"],["lue ","fold"],["re","s"],["t ","d"],["b","lue fold"],["and ","no "],["for you","r "],["Handle this language task without outside facts. Ref ","P1A-0"],["ed","."],["me",": "],["an","y "],["I ","h"],["o","v"],["s",", "],[": ","“"],["ly ","two "],["Return exact","ly two "],["b","e"],["Complete this English practice task. Reference ","P1A-0"],["Respond directly to this bounded English task (","P1A-0"],["gre","en noteboo"],["Th","ur"],["Thur","s"],[".\nRe","writ"],["in ","one "],["Read the supplied context, then answer. Ticket ","P1A-0"],["Give only the requested answer for exercise ","P1A-0"],["s","te"],["s","mall "],[":","30"],["09",":30"],["Follow the requested wording and format. I","tem P1A-0"],["on","ly "],[":","20"],[":","45"],["11",":45"],["sh","or"],["-0","4"],["Use only the supplied material for i","tem P1A-0"],["n","es"],["14",":20"],[":","05"],["?"," "],["s ","you "],["Th","ank "],["16",":05"],["b","r"],["Thank ","you "],["mis","s"],[":","15"],["er","e "],["e: ","N1"],["08",":15"],["miss","ing "],["F","ri"],["M","on"],["answer ","cannot be known from the information given"],["s","."],["W","ed"],["Wed","nes"],["quiet ","room"],["on","t d"],["fr","ont d"],["front d","es"],["T","u"],["ing ","missing "],["Tu","es"],["rec","i"],["bjec","t: "],[".\n","Return exactly two "],["or","ro"],["om","orro"],["-","A"],["e","ast "],["h","al"],["u","n"],["east ","hal"],["ing ","are"],["read","ing are"],["for ","N1"],["D","ear "],["t","omorro"],["i","z"],["si","on"],["cl","ar"],["cl","ear "],["ic","ation "],["as","su"],["ques","tion "],["con","cise "],["ad","d"],["if","ication "],["clar","ification "],["assu","m"],["cl","ude "],["0","3"],["t",", "],["not ","in"],["any ","detail"],["d","raft "],["C","ould you please "],["O","mar"],["cou","n"],["na","me: "],["coun","t: "],["A","s"],["S","T"],["re","vi"],["tion","="],["ou","s "],["Lu","is "],["from"," these "],["0","6"],["f","i"],["in","e the "],["S","u"],["er","."],["ord","er "],["J","on"],["ing ","any detail"],["detail","s."],["'","m "],["p","ol"],["ar","y"],["d","o "],["in","ste"],["es","sion"],["inste","ad "],["e","ma"],["i","l "],["ema","il "],["2",".\n"],["P1A-","10"],[" that ","the "],["to","."],["le","f"],["n","once "],["s","t "],["ing ","informa"],["a ","shor"],["fin","al "],["nonce ","statement"],["-","text "],["M","ar"],["P","ut "],["S","ay"],["S","um"],["T","urn"],["`","."],["`"," and "],["a","in"],["b","ine the "],["d","ro"],["d","ow"],["d","s into one "],["d","s you "],["e","vent "],["f","lu"],["f","ession"],["g","ic"],["i","ed"],["k","dow"],["n",". The "],["n","clude "],["r","te"],["s","ay"],["e ","email "],["d ","no "],["d ","line must be `"],[" the ","labels in "],[" the ","final "],["ing","; "],[". ","Return exact"],["as","on "],["el","ds into one "],[": ","[N110"],["a ","gre"],["pl","ain"],["the ","se"],["the ","event "],["and ","clos"],[", ","cou"],["k ","one "],["; ","do "],["with"," these "],["con","cis"],["con","d line must be `"],["ly"," the final "],["e this ","supplied "],["e this ","as "],["e this ","message "],["supplied ","statement"],["supplied ","fi"],["reques","t is "],["answ","er."],["The ","request is "],["al",", cou"],["one ","pro"],["ad","d no "],["al ","English "],["al ","ord"],["without ","comm"],["eting ","and clos"],["ent ","sentence without "],["ent","ary"],[". I","nclude "],["it","e email "],["op","e this message "],[" these ","supplied fi"],["lin","es "],["Return"," the labels in "],["er. ","Return the labels in "],["Com","bine the "],[".\nRe","ason "],[".” ","As"],["facts","."],["P1A-1","2-0"],["P1A-1","3-0"],["lo","gic"],["gard","s"],["specif","ied"],["text ","in one "],["mar","iz"],["fin","ds you "],["pp","ing any detail"],["sentence: ","“"],["vent ","an "],["s into one ","concis"],["sentence without ","add"],["labels in ","logic"],["of ","assum"],["new ","facts."],["fir","st "],["wel","l"],["e, ","flu"],["natur","al English "],["under","specified"],["Draft ","a shor"],["class ","PAVO-N220"],["and no ","Mar"],["I h","ope this message "],["s, ","“"],[".\nRewrit","e this as "],["only ","from these "],["? ","Say"],["answer cannot be known from the information given","; do "],["ing missing ","details."],["clear ","sentence: "],["question ","instead "],["concise ","clarification "],["t, ","pol"],["not in","vent an "],["ous ","sentence: “"],["Su","bject: "],["order ","without comm"],[" that the ","answer cannot be known from the information given; do "],["ing informa","tion: "],["nonce statement","s: "],["-text ","lines "],["Put ","the event "],["Sum","mariz"],["Turn"," these supplied fi"],["` and ","the se"],["dro","pping any detail"],["fession","al, cou"],["kdow","n. The "],["rte","ous sentence: “"],["say","s, “"],["ing; ","add no "],[". Return exact","ly the final "],["elds into one ","natural English "],["a gre","eting and clos"],["plain","-text lines "],["k one ","concise clarification "],["with these ","note"],["e this supplied ","text in one "],["supplied statement","s into one concis"],["The request is ","underspecified"],["one pro","fessional, cou"],["al ord","er. Return the labels in "],["ent sentence without ","dropping any detail"],["entary",": [N110"],[". Include ","a greeting and clos"],["ite email ","from "],["Combine the ","supplied statements into one concis"],[".\nReason ","only from these "],[".” As","k one concise clarification "],["finds you ","well"],["sentence without add","ing information: "],["labels in logic","al order. Return the labels in "],["of assum","ing missing details."],["first ","line must be `"],["e, flu","ent sentence without dropping any detail"],["Draft a shor","t, pol"],["and no Mar","kdown. The "],["I hope this message ","finds you well"],[".\nRewrite this as ","one professional, cou"],["? Say"," that the answer cannot be known from the information given; do "],["question instead ","of assuming missing details."],["not invent an ","answer."],["order without comm","entary: [N110"],["Put the event ","labels in logical order. Return the labels in "],["Summariz","e this supplied text in one "],["Turn these supplied fi","elds into one natural English "],["` and the se","cond line must be `"],["ing; add no ","new facts."],[". Return exactly the final ","class PAVO-N220"],["plain-text lines ","and no Markdown. The "],["The request is underspecified",": “"],[". Include a greeting and clos","ing; add no new facts."],["Combine the supplied statements into one concis","e, fluent sentence without dropping any detail"],[".\nReason only from these ","nonce statements: "],[".” Ask one concise clarification ","question instead of assuming missing details."],["Draft a short, pol","ite email from "],[".\nRewrite this as one professional, cou","rteous sentence: “"],["? Say that the answer cannot be known from the information given; do ","not invent an answer."],["Put the event labels in logical order. Return the labels in ","order without commentary: [N110"],["Summarize this supplied text in one ","clear sentence: "],["Turn these supplied fields into one natural English ","sentence without adding information: "],["plain-text lines and no Markdown. The ","first line must be `"],["Combine the supplied statements into one concise, fluent sentence without dropping any detail",": "],["ver","y "],["m","ov"],["ed ","to "],["v","is"],["pro","vi"],["tomorro","w"],["R","E"],["ON","E] the "],["Wh","at "],["0","4"],["8",".\n"],["B","es"],["t re","gards"],["Bes","t regards"],["Lu","is"],["plac","ed "],["item",": "],["cod","e: N1"],["vis","it"],["code: N1","9"],["The","o"],["0","2"],["blue fold","er "],["li","ke "],["I","'m "],["r","e "],["green noteboo","k "],["ing"," the "],["O","m"],["Om","ar "],["9WE","I "],["a","v"],["for"," the "],["The","o "],["J","on "],["c","op"],["ar","e "],[" ","cop"],["te","r"],[" must belong ","to."],[".\nReturn exactly two ","plain-text lines and no Markdown. The first line must be `"],["4",".\n"],["with"," "],["an","k"],["\n\n","Dear "],[",\n\n","I hope this message finds you well"],["me","et"],[".\n\n","Best regards"],["meet","ing"],["t","an"],["lo","c"],[" cop","i"],["r","ou"],["read","y"],["read","y "],["6",".\n"],["ed","ul"],["ch","edul"],["would ","like "],[" ","was "],["i","t is "],["fe","el "],["ar","d "],["ri","v"],["small ","parcel "],["ar","riv"],["wh","at "],["-0","1"],["e th","at "],["i","t "],["t","s "],["p","os"],["me","et "],["Mir","a"],["will ","meet "],["mess","ag"],["om"," "],["i","d"],["pp","reci"],["m","y "],["r","and"],["rand","om "],["0","1"],[". ","PAVO-N220"],["in","d"],["g","ra"],["Wei"," "],["o","f"],["Priy","a"],["in","side "],["n","e"],["N1","20"],[" the","m "],[".\n\nBest regards",",\n\n"],["to ","NORU-N220"],["o","bjec"],["7",".\n"],["as","k"],["'","re "],["e ","a "],["k","ind"],["s","or"],["Nor","a"],["front des","k"],["I'm ","sor"],["I'm sor","r"],["Could you please ","specif"],["en","d"],["s","is"],["U","ma"],["open","ed the "],["would like ","to "],["u","p"],["gard","en"],[".\n\n","I "],["3",".\n"],["ab","out "],["of"," the "],["sis","tan"],["ac","tion="],["; ","action="],["ed","; "],["ex","p"],[",\n\nI hope this message finds you well",".\n\nI "],["th","ing "],["se","al"],["east hal","l"],["d","ay "],["as","k "],[" is ","a "],["i","ent"],[".\n","[N110"],["?","\""],["as","sistan"],["0",".\n"],["e","re"],["Ash","a"],["wel","com"],["w","an"],["B","S"],["S","-A"],["P1","S-A"],["plac","ed the "],["P1S-A","BS"],["N","E"],["ted ","to "],["ic","h "],[".\n\n","Thank you "],["1",".\n"],["reading are","a"],["on ","Tues"],["3LUIS","-"],["e","-"],[", ","b"],["ex","t "],["09:30","."],["n","ext "],["Thurs","day"],["14:20","."],["wan","ted to "],["vi","ce "],["9WEI","-"],["9",".\n"],["N2","30"],["11:45","."],["ta","ke "],[" ","b"],["on ","Wednes"],["meeting ","note "],["M","e"],["a","k"],["What ","exact "],["Me","eting "],["provi","de "],["1JON","-"],[", b","ut "],["Re","ques"],["on ","Mon"],["k","s "],["t","r"],["ed ","c"],["Y","ou"],["on ","Fri"],["7THEO","-"],["d","el"],["c","e"],["d","u"],["e","ar"],["ti","c"],["pro","du"],["08:15","."],["our ","meeting "],["li","gh"],["de","vice "],["av","e "],["produ","ce "],["m","or"],["reques","t "],["Y","our "],["a","m "],["p","re"],["s","e "],["in the ","quiet room"],["Reques","t "],["16:05","."],["b","er "],["provide ","the "],["a","tion"],["parc","el"],["en","su"],["N2","10"],["e","very "],["r","ang"],["y"," the "],["ar","rang"],["gh"," the "],["rou","gh the "],["A","Y"],["D","AY"],["a ","quiet "],["with"," the "],["DAY","|"],["a quiet ","meeting"],["ed ","for "],[" ","ready"],["n","um"],["w","al"],["in","v"],["N1","30"],["revi","ew "],["c","oll"],["coll","ec"],["e ","to "],["N1","8"],["p","or"],["s","chedul"],["I ","can"],["en ","be"],["meeting ","note"],["3","5"],["it","'s "],["F","i"],["al","u"],["num","ber "],["Fi","x"],["R","ST"],["a","tion: "],["y",", but "],["I'm sorr","y, but "],["I can","not "],["I'm sorry, but ","I cannot "],["-","F"],["-","L"],["-","NE"],["I","RST"],["X","T] "],["re","pli"],["re","ad the "],["es","."],["] the ","message "],["label"," "],["AS","T] "],["messag","e"],["-F","IRST"],["-L","AST] "],["-NE","XT] "],["read the ","message"],["] the message ","arriv"],["-FIRST","] the message arriv"],["N","70"],["ma","ke "],["for N1","70"],["\n","count: "],["v","en"],["in","si"],["con","ven"],["it","s "],["` and the second line must be `","count: "],["s","e: "],["pl","y "],["wh","ere"],["where","?"],["ne","ed"],["l","ast "],["The ","meeting "],["with these note","s: "],["Thurs","day."],["un","c"],["\n","ri"],["A","R"],["D","D"],["D","] the "],["E","N"],["L","E] the "],["T","] the "],["x"," was "],[", ","it is "],["no ","ex"],["MI","DD"],["was ","placed "],["was ","seal"],["bo","x was "],["gh","t="],["open","ed; [N110"],["note ","was placed "],["parcel ","was seal"],["ST","AR"],["lef","t="],["insi","de"],["\nri","ght="],["D] the ","parcel was seal"],["EN","D] the parcel was seal"],["LE] the ","note was placed "],["T] the ","box was "],["MIDD","LE] the note was placed "],["STAR","T] the box was "],["MIDDLE] the note was placed ","inside"],["START] the box was ","opened; [N110"],["P","le"],["br","ing the "],["Ple","ase "],["sentenc","es."],["two ","sentences."],[" is ","inside "],["says, “","I "],["ts ","w"],["con","fir"],["i","ce "],["o","k"],["o","ice "],["for","w"],["si","on "],["will ","br"],["our meeting ","to "],["d","en be"],["h","in"],["h","id"],["N1","70"],["pro","pos"],["in the ","garden"],["clos","ed c"],["produce ","tomorrow"],["den be","hin"],["hid","den behin"],["closed c","ard "],["0","0"],["O","] the "],["T","W"],["h","as "],["t","; [N110"],["al","ly "],["ent ","out"],["TH","RE"],["was ","loc"],["or ","lef"],["or ","was loc"],["E] the ","ligh"],["do","or was loc"],["ONE] the ","last "],["visit","or lef"],["ts w","ent out"],["O] the ","door was loc"],["TW","O] the door was loc"],["THRE","E] the ligh"],["ONE] the last ","visitor lef"],["TWO] the door was loc","k"],["THREE] the ligh","ts went out"],["ONE] the last visitor lef","t; [N110"],[", ","with "],["I'm sorry, but I cannot ","provide the "],["A"," "],["s",":"],["t","ude "],[" th","ank "],["ti","tude "],["label","ed "],["with these note","s:"],["gra","titude "],["with these notes:"," thank "],["3","9"],["e","e"],[". ","Your "],["d the ","closed card "],["hidden behin","d the closed card "],["hidden behind the closed card ","labeled "],["C","on"],["c","um"],["par","e "],["\n","code: N19"],["a","ir"],["th","er "],["ch","air"],["Follow the requested wording and format. I","tem "],["` and the second line must be `","code: N19"],[".\nReturn exactly two plain-text lines and no Markdown. The first line must be `","item: "],["d","raf"],["me","m"],["random ","cod"],["2","5"],["reading are","a "],["mov","ed to "],["-","D"],["-","P"],["C","T] "],["P","] "],["s","ation "],["te","re"],["en","tere"],["con","ver"],["d the ","room"],["do","or"],["-A","CT] "],["for N1","6"],["RE","P] "],["ONE] the ","conver"],["opened the ","door"],["-D","ONE] the conver"],["-P","REP] "],["sation ","end"],["entere","d the room"],["-DONE] the conver","sation end"],["e ","our meeting to "],[",\n\nI hope this message finds you well.\n\nI ","wanted to "],["kind","ly "],["propos","e a "],["ing ","to "],["in the ","reading area"],["a","it"],["i","m"],["s","t"],["w","ait"],["or","s "],["The ","two "],["in the ","east hall"],["visit","ors "],[" copi","es"],["wait","ing "],["The two ","visitors "],["e","w"],["s ","my "],[" th","ank"],["you","r "],["res","s my "],["revi","ew"],["exp","ress my "],[" ","chair"],["N","20"],[". ","I "],["for","e "],["tex","t: "],["ver","sion "],["N","o"],["d","at"],["No","te"],["you","'re "],["N1","5"],["E","very "],["d","is"],["w","ee"],["I ","would like to "],["0","7"],["next ","wee"],["review","ed "],["ing"," them "],["gard","en "],["east hal","l "],["propose a ","meeting "],["y","p"],["er","v"],["front des","k "],["a","in "],["t","yp"],["ag","ain "],["once ","again "],["3","8"],["ti","me"],["once again ","for your "],["3","6"],["4","8"],["Use only the supplied material for i","tem "],["5","9"],["wh","ich "],["co","de "],["would ","be "],["feel ","b"],["help","."],["5OMAR","-"],["T","i"],["a","ppreci"],["be","fore "],["th","ank"],["in the ","front desk"],["f","u"],["y"," this "],["if"," the"],["ch","oice "],["small ","parcel"],["S","ta"],["w","ere "],["day",". Include a greeting and closing; add no new facts."],["res","erv"],["ma","k"],[" must belong ","to NORU-N220"],[".\nReturn exactly two plain-text lines and no Markdown. The first line must be `","name: "],["T","o "],["sen","d the "],["thing ","el"],["5",".\n"],[" copi","es "],["next wee","k "],["propose a meeting ","at "],["3","7"],["on"," the "],["fe","el"],["sta","te"],["do","cum"],[" b","elong "],["6","7"],["e","f"],["e","m"],["will ","be "],["w","e "],["ay ","to "],["ok","ay to "],["will br","ing them "],["th","at "],["y ","what "],["quiet room"," "],["6","8"],["s ","to "],["ab","le"],["assistan","ce "],["c","us"],["s ","and "],["on Tues","day."],["reci","p"],[" ","moved to "],["2","8"],["a","te"],["w","or"],["1","9"],["er","r"],[" must belong ","to the "],["4","3"],["arrang","ed "],["dis","cus"],["if"," this "],["Could you please specif","y what "],["4","7"],[".\n\nThank you ","once again for your "],["ensu","r"],["loc","a"],["entered the room","; [N110"],["e ","and "],["ly ","appreci"],["6","9"],["provi","d"],["i","p"],[" ","by "],["6","3"],["on Wednes","day."],["on Fri","day."],["A","ppreci"],["h","er "],["gre","at"],["I'm sorry, but I cannot provide the ","exact "],["te","r "],["sup","por"],[", and ","I "],[" chair","s in"],["f","f"],["P1A-1","1"],["2","9"],["o","d"],["re","as"],["reas","on"],["2","4"],["C","h"],["i","tem "],[". I","t "],["detai","l "],["writ","ing to "],["am ","writing to "],["gratitude ","for the "],["Ch","ang"],["1","7"],["=","help"],["e","ak"],["er","="],["et","ter"],["for ","her "],["; ","reason"],["sp","eak"],["Turn these supplied fields into one natural English sentence without adding information: ","speak"],["Could you please specif","y the "],["; action=","thank"],["ed; ","recip"],["ient","="],["Request ","for "],["for her ","help."],["; reason","=help"],["Turn these supplied fields into one natural English sentence without adding information: speak","er="],["; action=thank","ed; recip"],["; action=thanked; recip","ient="],["5","4"],["S","DAY|"],["tion=","the "],["objec","t="],["fu","l "],["loca","tion=the "],["t ","and "],["or","="],["; ","location=the "],["act","or="],["plac","ed; "],["Turn these supplied fields into one natural English sentence without adding information: ","actor="],["; action=","placed; "],["; action=placed; ","object="],[", ","it's "],["ta","in"],[" was ","reviewed "],["4","2"],["e ","of "],["an","t "],["re","'s "],["ing","s "],["ma","t"],["5","5"],["1","8"],["5","8"],["in","c"],["on Mon","day."],["g","o"],["under","st"],["day ","at "],["c","ould "],["h","ave "],["2","2"],["suppor","t "],["blue fold","er"],["draf","t"],["3","4"],["c","as"],["d","ec"],["t ","the "],["re's ","an"],["go","t "],["t","u"],["green noteboo","k"],["device ","N70"],["great","ly appreci"],["3","2"],["6","5"],["i","th"],["s ","at "],[" th","ings "],["is ","hidden behind the closed card labeled "],["pro","v"],["What exact ","number "],["forw","ard "],["What exact number ","is hidden behind the closed card labeled "],["4","0"],["se","e"],["mor","e "],["th","e"],["res","chedul"],["about ","tomorrow"],["5","2"],["=","ready"],["=","N230"],["; ","day"],["; ","time"],["; ","state"],["item","=N230"],["Turn these supplied fields into one natural English sentence without adding information: ","item=N230"],[" copies ","to the "],[" things ","for "],["forward ","to "],["=ready","; time"],["; day","="],["; state","=ready; time"],["; state=ready; time","="],["ted ","by "],[" chairs in","to the "],["2","6"],["i","en"],["or","rec"],["to ","bring the "],[". I","f "],[".\n","\n\n"],["meeting ","for "],["are","d "],["class ","NORU-N220"],["docum","ent "],["wor","ks "],[" must belong to the ","class NORU-N220"],["2","3"],["l","et "],["as","ed "],["Re","vi"],["ten","tion "],["at","tention "],["sp","on"],["tr","u"],["the","m "],["let ","me "],["Revi","ew "],[".","\""],["s ","the "],["The ","item "],["The item ","N230"],["c","ould you please "],["on ","Thursday."],["e the ","meeting for "],["time ","works "],["Fri","day"],["collec","t "],["t b","y "],["al","l "],["par","tic"],["mov","ed "],["ready ","for "],["4","9"],["m","om"],["s","om"],["it","y"],["has ","the "],["ate","d"],["spon","se "],["g","rou"],["u","d"],["t re","ac"],["grou","p"],[" ","will "],[" ","produce tomorrow"],["H","el"],["m","ent"],["arriv","ed "],["random ","code "],["take ","a "],["What exact ","random code "],["random cod","e that "],[" produce tomorrow","? Say that the answer cannot be known from the information given; do not invent an answer."],["What exact random code ","will "],["4","4"],["ic","e"],["mom","ent "],["take a ","moment "],["2","7"],["3","3"],["20","MIRA"],["The ","LUMA-N220"],["in ","LUMA-N220"],[", and ","VERI-N220"],["from ","it "],[".\nReason only from these nonce statements: ","The LUMA-N220"],[" is inside ","VERI-N220"],["im","prov"],["reserv","ed the "],["em","ent "],["group"," is inside VERI-N220"],["b","etter"],["kno","w "],["be","en "],["You"," "],["greatly appreci","ated"],["let me ","know "],["6","6"],["ag","re"],["mus","t reac"],["sh","ared "],["will ","collect "],["Please ","let me know "],["must reac","h "],["shared ","at "],["1","3"],["v","alu"],["pl","an"],["The ","draft "],["arranged ","them "],["arranged them ","before "],["w",".”"],["er","ation "],[", ","send the "],["no","w.”"],["pro","jec"],["specif","ic"],["new ","review "],[" thank","ed "],["new review ","day "],[" ","i"],["-","time "],["5","-0"],["C","op"],["P","re"],["u","pp"],["e ","with "],["er","cas"],[". ","Fix"],["for","got "],["no","thing el"],["us","ing "],["requested ","a quiet meeting"],["and","-time "],["exact ","upp"],[".\nRewrite this as one professional, courteous sentence: “","You "],["ask","ed for "],["e-","and-time "],["a quiet meeting",". "],["you're ","feel"],["y this ","exact upp"],["valu","e with "],[" i","t by "],["Cop","y this exact upp"],["ercas","e-and-time "],[". Fix"," it by "],["forgot ","N18"],["nothing el","se: "],[".\nRewrite this as one professional, courteous sentence: “You ","forgot N18"],["asked for ","a quiet meeting. "],["value with ","nothing else: "],["Copy this exact upp","ercase-and-time "],["Copy this exact uppercase-and-time ","value with nothing else: "],[" ","one "],["C","orrec"],["k"," th"],["p","unc"],["s","o"],["s","inc"],["t","urn"],["th","rough the "],["s ","and no "],["re","turn"],["is ","a "],["and ","return"],["with"," exact"],["ly"," these "],["only",": "],["sentence ","only: "],[".\nRe","ply "],["or ","and return"],["word","s and no "],["ks ","through the "],["wal","k th"],["wal","ks through the "],["ation: ","N130"],["with these notes: ","ask "],["in the east hall","."],["err","or and return"],["e and ","time "],["t the ","agre"],["tu","ation: N130"],["ement ","error and return"],[" one ","sentence only: "],["Correc","t the agre"],["punc","tuation: N130"],["sinc","ere "],["with exact","ly these "],[".\nReply ","with exactly these "],["words and no ","punctuation: N130"],["walk th","rough the "],["ement error and return"," one sentence only: "],["Correct the agre","ement error and return one sentence only: "],[".\nReply with exactly these ","words and no punctuation: N130"],["5","3"],["g","in"],["wh","at"],["in the garden","."],["5","6"],["5","7"],["f","ur"],["P1S-ABS","-0"],["Appreci","ation "],["gin","s at "],["g","en"],["The request is underspecified: “","Pre"],["confir","m"],["in the reading area","."],["ensur","e that "],["The request is underspecified: “Pre","pare "],["0","-0"],["c","c"],["e","."],["l","e "],["o","k "],["ma","de "],["in ","no "],["45","OMAR"],["gra","m"],["thing ","is "],["read the message","; [N110"],["A","cc"],["—","“"],["—","wh"],["o ","will meet "],["ing ","to this "],["om"," and "],["ti","m"],["ed","?"],["ord","ing to this "],[".”","—wh"],["e only","—“"],["wh","om and "],["context","."],["help","ing "],["messag","e only—“"],[".\n\nThank you ","for your "],["repli","ed; [N110"],["repli","ed."],["-FIRST] the message arriv","ed."],["som","e"],["will collect ","it "],["Please let me know ","if this "],["Acc","ording to this "],["o will meet ","whom and "],[".”—wh","o will meet whom and "],["According to this ","message only—“"],[".”—who will meet whom and ","where?"],["g","ment"],["j","ud"],["k","es"],["n","on"],["re","sponse "],["a ","mis"],["and ","feel b"],[", ","non"],["ed",".\n[N110"],["e th","an "],["t b","e"],["ad",".” "],["al ","response "],["ta","kes"],["le","ar"],["giv","e "],["Giv","e a "],["mis","takes"],["kind",", non"],["take ","and feel b"],["mor","e than "],["-FIRST] the message arriv","ed.\n[N110"],["says, “I ","made "],["time works ","for you"],["gen","eration "],["in no ","more than "],["gment","al response "],["jud","gmental response "],["a mis","take and feel b"],["ad.” ","Give a "],["kind, non","judgmental response "],["says, “I made ","a mistake and feel b"],["in no more than ","two sentences."],["ad.” Give a ","kind, nonjudgmental response "],["says, “I made a mistake and feel b","ad.” Give a kind, nonjudgmental response "],["says, “I made a mistake and feel bad.” Give a kind, nonjudgmental response ","in no more than two sentences."],["M","ak"],["a ","f"],["The request is underspecified: “","Mak"],["up","dat"],["in the quiet room","."],["forward to ","our "],["The request is underspecified: “Mak","e the "],["6","0"],["6","1"],["p","ec"],["t","e the "],["“","The "],["is ","N120"],["as","pec"],["con","t"],["lis","ten"],["only"," that "],[". I","t be"],[".” ","Sta"],["Combine the supplied statements into one concise, fluent sentence without dropping any detail: ","The meeting "],["objec","t and "],["device ","N210"],["label ","on the "],["label ","using "],["its ","label using "],["Con","text: "],["fur","ther "],["te the ","object and "],["“The ","label on the "],["only that ","context."],[". It be","gins at "],[".” Sta","te the object and "],["Combine the supplied statements into one concise, fluent sentence without dropping any detail: The meeting ","is "],["its label using ","only that context."],["Context: ","“The label on the "],[".” State the object and ","its label using only that context."],["\n","left="],["3","1"],["6","2"],["6","-0"],[":","\nleft="],[" the ","sentence "],["es",", with "],["o ","placed "],["a ","text"],["and ","b"],["and ","give "],["to ","answer. "],[" this ","note "],["lin","es, with "],["was ","ready "],[".” ","Wh"],[" is ","LUMA-N220"],["Use only"," this note "],[", and ","where?"],[".\nReturn exactly two ","lines, with "],["P1A-10","-0"],["it is ","VERI-N220"],["tr","a text"],["ation",".\n\nBest regards,\n\n"],["Fix"," the sentence "],[", it is ","VERI-N220"],[", it is ","NORU-N220"],["no ex","plan"],["no ex","tra text"],["END] the parcel was seal","ed; [N110"],["END] the parcel was seal","ed."],["MIDDLE] the note was placed inside","."],["MIDDLE] the note was placed inside","; [N110"],["express my ","sincere "],["Note",": “"],["were ","ready "],["ien","ce"],[". If ","it is VERI-N220"],["attention ","to this "],["what",", and where?"],["thing is ","LUMA-N220"],["some","thing is LUMA-N220"],["o placed ","what, and where?"],["and give ","no explan"],["to answer. ","Note: “"],[".” Wh","o placed what, and where?"],["Use only this note ","to answer. Note: “"],[".\nReturn exactly two lines, with ","no extra text"],["Fix the sentence ","and give no explan"],[".\nReturn exactly two lines, with no extra text",":\nleft="],["Fix the sentence and give no explan","ation: "],[" ","in the "],["H","i"],["I","’"],["O","ff"],["on","e-"],[", ","I’"],["on ","Thursday"],["to ","be "],["ri","end"],["ly ","one-"],["er ","a f"],["sentence ","welcom"],[".” ","Off"],["new ","partic"],["Thank you ","for your "],["says, “","Hi"],["e to ","our "],["A ","new partic"],["ip","ant "],[", I’","m "],["riend","ly one-"],["er a f","riendly one-"],["sentence welcom","e."],[".” Off","er a friendly one-"],["says, “Hi",", I’m "],["A new partic","ipant "],[".” Offer a friendly one-","sentence welcome."],["A new participant ","says, “Hi, I’m "],["4","1"],["8","-0"],["I","f "],["M","ov"],["is ","need"],[".\nReason only from these nonce statements: ","If "],[".\nRewrite this as one professional, courteous sentence: “","Mov"],["inv","alu"],[" copies",". "],[".\nReason only from these nonce statements: If ","something is LUMA-N220"],[".\nRewrite this as one professional, courteous sentence: “Mov","e our meeting to "],["if"," "],["Mon","day"],["Tues","day"],["TWO] the door was lock","ed; [N110"],["TWO] the door was lock","ed."],["THREE] the lights went out","."],["THREE] the lights went out","; [N110"],["A","ll "],[", ","I would like to "],["to ","VERI-N220"],["for ","helping "],["; ","PAVO-N220"],["; ","all "],["elong","s to "],["comm","un"],["I h","ave "],["Wednes","day"],["The request is underspecified: “","Chang"],[".\nReason only from these nonce statements: ","All "],["e to our ","commun"],["; all ","VERI-N220"],["elongs to ","LUMA-N220"],["The request is underspecified: “Chang","e the meeting for "],[".\nReason only from these nonce statements: All ","LUMA-N220"],["e to our commun","ity"],["1","2"],["1","-0"],["6","4"],["m","ly "],["w","ar"],["es","t "],["ing",".” "],["for ","listen"],["Re","ply "],["ri","ef"],["ly","."],["30","MIRA"],[".” ","Reply "],["or ","two sentences."],["lo","ok "],["Respond ","natur"],["in one ","or two sentences."],["Thank you ","for listen"],["says, “","Thank you for listen"],["make ","next week "],["says, “I ","feel "],["ally ","and b"],["about tomorrow",".” Reply "],["mly ","in one or two sentences."],["war","mly in one or two sentences."],["ing.” ","Respond natur"],["rief","ly."],["says, “Thank you for listen","ing.” Respond natur"],["ally and b","riefly."],["about tomorrow.” Reply ","warmly in one or two sentences."],["says, “Thank you for listening.” Respond natur","ally and briefly."],["b"," in the "],["p","ast "],["and ","ask "],["to ","confirm"],["ten","se: "],["day",", and "],["sentence ","with the "],["e the ","sentence with the "],["ver","b in the "],["open","s the "],[".\nRewrit","e the sentence with the "],["typ","e of "],["past ","tense: "],["verb in the ","past tense: "],[".\nRewrite the sentence with the ","verb in the past tense: "],["?","\n\n"],["s","ed "],["te","ll "],["The ","review "],[" and ","ask"],[" them ","to confirm"],["with these notes: ","tell "],[" and ask"," them to confirm"],[" and ask them to confirm",". Include a greeting and closing; add no new facts."],["4","6"],["en","d "],["co","de"],["Mon","day."],["unc","er"],["7","-0"],["9","-0"],["s","el"],["Th","ere "],["ol","lab"],[". The ","new review day "],["ay ","for N16"],["Combine the supplied statements into one concise, fluent sentence without dropping any detail: ","There "],["You","'re "],["del","ay"],["del","ay for N16"],["opened the door","."],["-DONE] the conversation end","ed; [N110"],["-DONE] the conversation end","ed."],["is a ","delay for N16"],["The review ","for N16"],["ollab","or"],[". The new review day ","is "],["Combine the supplied statements into one concise, fluent sentence without dropping any detail: There ","is a delay for N16"],["4","-0"],["Subject: ","Appreciation "],["confir","m "],["underst","and"],["E","di"],["t ","only "],["is ","waiting "],[": ","The two visitors "],["ma","tic"],["e this ","gram"],["al",": The two visitors "],["ed to ","mak"],["are ","waiting "],["what ","is need"],["The two visitors ","are waiting "],["able",", and I "],["invalu","able, and I "],["Edi","t only "],["matic","al: The two visitors "],["e this gram","matical: The two visitors "],["ed to mak","e this grammatical: The two visitors "],["what is need","ed to make this grammatical: The two visitors "],["Edit only ","what is needed to make this grammatical: The two visitors "],["Edit only what is needed to make this grammatical: The two visitors ","is waiting "],[" ","so"],["C","ould "],["S","end "],["on",".” Ask one concise clarification question instead of assuming missing details."],["s ","or "],["y ","to "],["cannot be known from the information given","."],["The request is underspecified: “","Send "],["take a moment ","to "],[" so","on.” Ask one concise clarification question instead of assuming missing details."],["The request is underspecified: “Send ","N20"],["\n","D"],["\n","Ti"],["5","1"],["C","od"],["m","ed?"],["“","Review "],["on","e: "],["o ","and "],[", ","which "],[", ","day, and "],["ma","tion "],["ay",": "],["al","one: "],["answer ","from it "],[".\nRe","ad the supplied "],[".” ","What "],["co","op"],["li","est "],["fir","mation "],["time ","are "],["na","med?"],["e: N1","20"],["ear","liest "],["Con","firmation "],["mem","o and "],["your ","earliest "],["provid","ed "],["code",", day, and "],["\nD","ay: "],["\nTi","me: "],["Cod","e: N120"],["“Review ","N120"],["alone: ","“Review N120"],["answer from it ","alone: “Review N120"],[".\nRead the supplied ","memo and "],[".” What ","code, day, and "],["time are ","named?"],["your earliest ","conven"],[".\nRead the supplied memo and ","answer from it alone: “Review N120"],[".” What code, day, and ","time are named?"],["d","en"],["for","m "],[", with ","a "],["your earliest conven","ience"],[". ","A "],[". ","Every "],["con","den"],["Draft ","N15"],["ste","p"],["shor","ter "],["Summarize this supplied text in one clear sentence: ","Draft N15"],[" is a ","NORU-N220"],["make ","mistakes"],["version ","will be "],["version ","to be "],["sed ","version to be "],["take a moment to ","express my sincere "],[", with a ","conden"],[". A ","shorter "],["version will be ","shared at "],[", with a conden","sed version to be "],[". A shorter ","version will be shared at "],["com","ing "],[" is a ","VERI-N220"],[" is a ","LUMA-N220"],["look ","forward to our "],["sel","f"],[". Every ","VERI-N220"],[" ","group is inside VERI-N220"],["p","ut "],["y ","have "],[", ","could you please "],["ed","? Say that the answer cannot be known from the information given; do not invent an answer."],[" is ","in LUMA-N220"],["not ","dec"],[". C","ould you please "],["70","MIRA"],["Wh","ich "],[".\nReason only from these nonce statements: ","Every "],["id","ed? Say that the answer cannot be known from the information given; do not invent an answer."],["conven","ient"],[" is inside ","NORU-N220"],["if the","y have "],["choice ","will "],["reschedul","e our meeting to "],["make next week ","if they have "],["Could ","we "],["not dec","ided? Say that the answer cannot be known from the information given; do not invent an answer."],["Which ","choice will "],[".\nReason only from these nonce statements: Every ","LUMA-N220"],["make next week if they have ","not decided? Say that the answer cannot be known from the information given; do not invent an answer."],["\"","Could we "],["pre","pare "],["am writing to ","kindly "],["tim","e that "],["b","er"],["e ","of the "],["Wednes","day."],["9WEI ","is "],["mem","ber"],["5","0"],["you ","would like to "],["ter","n"],["specific"," "],["o","ther "],["ai","lab"],["av","ailab"],["exp","er"],["coop","er"],["2","1"],["produce tomorrow",". The "],["I'm sorry, but I cannot provide the exact ","random code that "],[" will ","produce tomorrow. The "],["invaluable, and I ","am "],["other ","time that "],["d","ic"],["in","form "],[" that ","N170"],["Summarize this supplied text in one clear sentence: ","The "],["9WEI ","must belong "],["pre","dic"],["express my ","gratitude for the "],[". It ","must reach "],["mat","ter"],["inform ","you"],["u","t"],["v","ice"],[", ","or "],[" is ","ready for "],["de","vice"],["would be ","more "],["discus","s "],["convenient",".\n\nThank you once again for your "],["invaluable, and I am ","tru"],["would be more ","convenient.\n\nThank you once again for your "],["in","u"],["has ","been "],[",\n\nI hope this message finds you well.\n\nI wanted to ","take a moment to express my sincere "],["cont","inu"],["\"","You're "],["c","ur"],["h","ear"],["placed ","a "],["I'm sorr","y to "],["welcom","e, "],["inform you"," that "],["\"You're ","welcome, "],["I'm sorry to ","hear"],["B","r"],["O","ut"],["b","rac"],["c","ould you "],["e","ted "],["k","eted "],["l","o "],[", ","welcom"],["10","MIRA"],["only"," this "],[" that ","you're feel"],[".\nRewrite this as one professional, courteous sentence: “","Br"],["text: ","<"],["Hel","lo "],["updat","e the "],["put ","only this "],["I'm sorry to hear"," that you're feel"],["Out","put only this "],["brac","keted "],[".\nRewrite this as one professional, courteous sentence: “Br","ing "],["Output only this ","bracketed "],["Output only this bracketed ","text: <"],["at ","14:20."],["in the front desk","."],["and ask ","for N170"],["tern","al "],["other time that ","would be more convenient.\n\nThank you once again for your "],["discuss ","our "],["and ","is "],["and ","propose a meeting at "],[".\n\n","To "],["com","ple"],["di","tion"],["Fri","day."],["up"," "],[" b","elongs to LUMA-N220"],["read the message",".\n[N110"],[" belong ","to NORU-N220"],[" belong ","to VERI-N220"],["better",".” Ask one concise clarification question instead of assuming missing details."],["delay","ed "],["re","ac"],["on Mon","day"],["that ","you "],["if ","you "],["e to our community","!"],[", welcom","e to our community!"],["7","05"],["h","es "],["Tues","day."],["your earliest convenience","?\""],["reac","hes "],["is ","typ"],["ic","ally "],["mus","t "],["es ","is typ"],["of ","random cod"],["Subject: ","Meeting "],["assistan","ce"],["next ","step"],["improv","e"],["generation ","of random cod"],["you would like to ","improve"],[" will produce tomorrow. The ","generation of random cod"],["es is typ","ically "],[" will produce tomorrow. The generation of random cod","es is typically "],["c","ase "],["Could you please specify what ","type of "],["The draft ","N15"],["projec","t"],["if you ","could "],["t","'s "],["re","le"],["ly"," thank"],["it's ","okay to "],["ful ","for your "],["look forward to our ","continu"],["invaluable, and I am tru","ly thank"],["invaluable, and I am truly thank","ful for your "],["at ","16:05."],[",\n\nI hope this message finds you well",". I "],["ensu","re "],["at ","09:30."],["at ","08:15."],["ts ","of the "],["on Tues","day"],["collec","ted by "],["dat","e and time "],["Could you please specify what ","aspec"],["cur","ren"],["Could you please specify what aspec","ts of the "],["information ","for "],["ick","up "],["new ","date and time "],["inform you that ","I have "],["w","ay"],["ten"," "],["on Wednes","day"],["request ","the "],["W","ith"],["is ","writ"],["ed ","note"],[", ","what "],["ted ","information for "],["The ","answer cannot be known from the information given"],["out ","see"],["it","? Say that the answer cannot be known from the information given; do not invent an answer."],["sentence ","is writ"],["sta","ted information for "],["Use only the ","stated information for "],["item","s or "],["ing the ","seal"],["inside ","it? Say that the answer cannot be known from the information given; do not invent an answer."],["would be ","greatly appreciated"],["Ti","me "],["if the","re's an"],["ten ","inside it? Say that the answer cannot be known from the information given; do not invent an answer."],["With","out see"],["ed note",", what "],["The answer cannot be known from the information given","."],["sentence is writ","ten inside it? Say that the answer cannot be known from the information given; do not invent an answer."],["Use only the stated information for ","case "],["ing the seal","ed note, what "],["Without see","ing the sealed note, what "],["Without seeing the sealed note, what ","sentence is written inside it? Say that the answer cannot be known from the information given; do not invent an answer."],["t","y "],["te","ly "],[". I","t's "],["Follow the requested wording and format. Item ","P1A-13-0"],["tain","ty "],["uncer","tainty "],["comple","tely "],[". Re","member"],["Work carefully from the text below. Case ","P1A-13-0"],["Read the supplied context, then answer. Ticket ","P1A-13-0"],["information giv","en "],[" ","as "],["Complete this English practice task. Reference ","P1A-13-0"],["-03","8"],["number ","hidden behind the closed card labeled "],["Could you please specify the ","exact "],["15","OMAR"],["Subject: ","Confirmation "],["por","tan"],["im","portan"],["Use only the supplied material for item ","P1A-13-0"],["attention to this ","matter"],[".\n\nTo ","further "],["Subject: Confirmation ","of "],["p","ickup "],["ing","."],[". ","Please let me know if this "],["understand","ing and "],[", with a condensed version to be ","rele"],[", with a condensed version to be rele","ased "],["f","re"],["g","or"],["h","um"],["to ","make mistakes"],[". I","f"],[", and ","it's okay to "],["an ","to make mistakes"],["ad ","about "],["Subject: ","Request for "],["feel b","ad about "],[", it's ","completely "],["?\n\n","Thank you for your "],["hum","an to make mistakes"],[", and it's okay to ","feel bad about "],[", it's completely ","human to make mistakes"],[", it's completely human to make mistakes",", and it's okay to feel bad about "],["at ","11:45."],["si","b"],["Wei"," and "],["pos","sib"],["Meeting ","Time "],["on Fri","day"],["ensure that ","the "],["if there's an","other time that would be more convenient.\n\nThank you once again for your "],["-","con"],["5",").\n"],["8","-06"],["A","n"],["er"," this "],[". ","Ticket "],["ed ","uncertainty "],["sw","er this "],["ec","k. Reference "],["without ","inv"],["ent","ing missing "],["facts",". Ticket "],["Respond ","to the "],["ch","eck. Reference "],["bounded ","request "],["tain","ed uncertainty "],["What exact number is hidden behind the closed card labeled ","N70"],["What exact random code will ","device N70"],["self","-con"],["An","swer this "],["without inv","enting missing "],["Respond to the ","bounded request "],["tained uncertainty ","check. Reference "],["self-con","tained uncertainty check. Reference "],["Answer this ","self-contained uncertainty check. Reference "],["without inventing missing ","facts. Ticket "],["Respond to the bounded request ","without inventing missing facts. Ticket "],["9",").\n"],["is ","schedul"],["P1A-10","-06"],["prepare ","for "],["cooper","ation.\n\nBest regards,\n\n"],["invaluable, and I am truly thankful for your ","help"],["1",").\n"],["ask ","if you could "],["P1S-ABS","-02"],["What exact number is hidden behind the closed card labeled ","N210"],[")",".\nReason only from these nonce statements: The LUMA-N220"],["5","-06"],["l","ed"],["know","led"],["Respond directly to this bounded English task (","P1A-12-0"],["-03","9"],["Could you please specify what type of ","items or "],[". Remember",", it's "],["knowled","g"],["7","-06"],["a","ted "],["h","ere "],["en"," the requested "],["is ","un"],["ti","se "],["the ","information given "],["for ","next week "],["ly ","wh"],["sen","t "],["cl","ear"],["The ","requested "],[". I","tem "],["Uma ","placed the "],["know","able"],["te ","clear"],[". Your ","exper"],["Sta","te clear"],["detail ","is un"],["requested a quiet meeting",", and "],["en the requested ","detail is un"],["tise ","and "],["for next week ","cannot be known from the information given."],["ly wh","en the requested detail is un"],["The requested ","detail "],["knowable",". Item "],[". Your exper","tise and "],["State clear","ly when the requested detail is un"],["State clearly when the requested detail is un","knowable. Item "],["4","-06"],["5","-05"],["m","an"],["ti","l "],["un","til "],["9WEI ","b"],["feel ","fre"],["time works for you",", or "],["delayed ","until "],["feel fre","e to "],["1","-06"],["ou","gh"],["at ","your earliest convenience?\""],["-01","9"],["The requested detail ","about "],["feel free to ","ask"],["\n","L"],["0","-05"],["O","bject: "],["el",": "],["ab","el: "],["me ","to "],[" the","re's an"],["I'm sorry, but I cannot provide the exact ","number hidden behind the closed card labeled "],["project",". Your expertise and "],[". If"," there's an"],["\nL","abel: "],[". If there's an","y"],["\nLabel: ","N120"],["'","s in"],["0","-06"],["4","-05"],["7","-05"],["8","-05"],["G","re"],["r","y "],["ent","ry "],["br","ing "],["P1A-10","-05"],["ask if you could ","bring the "],[" ","tomorrow"],["1","-05"],["6","-05"],["9","-05"],["9","-04"],["b","y the "],["c","ollabor"],["Give only the requested answer for exercise ","P1A-13-0"],["4","-02"],["al","gor"],["without ","specific "],["do","es "],["natur","e of the "],["for your ","assistance "],["Handle this language task without outside facts. Ref P1A-0","3-0"],["gratitude ","for your assistance "],["Subject: Confirmation of ","Meeting Time "],[". Please let me know if this ","time works for you, or "],["project. Your expertise and ","support "],["algor","ith"],["without specific ","knowledg"],["1","-04"],["9","-06"],[". ","Wh"],["at","'s "],["05","OMAR"],["Complete this English practice task. Reference P1A-0","3-0"],[",\n\nI hope this message finds you well.\n\nI wanted to ","express my gratitude for the "],[" copies",", and "],[",\n\nI hope this message finds you well.\n\nI wanted to take a moment to express my sincere ","gratitude for your assistance "],["update the ","N18"],["must ","ensure that the "],["importan","t is "],[". Wh","at's "],[". What's ","important is "],["5","-04"],["9","-02"],["t","ab"],["to ","me "],["Mira ","placed the "],["tomorro","w "],["name: ","Luis"],["-01","8"],["lear","n"],["device","'s in"],[".\n\nTo further ","discuss our "],["is schedul","ed to "],["device's in","ternal "],["3",").\n"],["7","-02"],["7","-04"],["A","d"],["o","ver"],["al","ly"],["pro","c"],["rec","ent "],["specif","y "],["-03","7"],["Work carefully from the text below. Case P1A-0","3-0"],["Handle this language task without outside facts. Ref P1A-0","2-0"],["Respond directly to this bounded English task (P1A-0","3-0"],["Follow the requested wording and format. Item P1A-0","2-0"],["name: ","Omar"],["name: ","Theo"],["up","d"],["dition","ally"],["entry ","by "],["Ad","ditionally"],["\"","Could you please "],["6","-06"],["b","ased "],["g","ro"],["l","l"],["s","y"],["s","tem "],["ed ","by the "],[", ","I "],["ag","ed by the "],["not ","predic"],["comm","en"],["I'm ","here "],["opened the door","; [N110"],["Use only the supplied material for item ","P1A-12-0"],["and is ","not predic"],[" will produce tomorrow. The generation of random codes is typically ","man"],["tab","le "],["device's internal ","sy"],["stem ","and is not predic"],["aged by the ","device's internal sy"],[" will produce tomorrow. The generation of random codes is typically man","aged by the device's internal sy"],["stem and is not predic","table "],[" will produce tomorrow. The generation of random codes is typically managed by the device's internal sy","stem and is not predictable "],["sen","d "],[",\n\n","\n"],["Respond directly to this bounded English task (","P1A-11"],["Handle this language task without outside facts. Ref ","P1A-12-0"],["Complete this English practice task. Reference P1A-0","2-0"],["Give only the requested answer for exercise P1A-0","3-0"],["-01","7"],["mat","ter "],[" as ","the information given "],["\n","Dear "],["0","-02"],["6","-02"],["6","-04"],[".\n","Put the event labels in logical order. Return the labels in order without commentary: [N110"],["you ","need"],["\n\n","\nDear "],[" is ","delayed until "],["Complete this English practice task. Reference ","P1A-11"],["by ","14:20."],["noteboo","k"],["Respond directly to this bounded English task (P1A-0","2-0"],["What exact random code will ","device N210"],["I'm sorry, but I cannot provide the exact random code that ","device N210"],["Could you please specify the exact ","nature of the "],[". Remember, it's ","okay to "],[",\n\nI hope this message finds you well.\n\nI wanted to take a moment to express my sincere gratitude for your assistance ","with the "],[",\n\n\n","I hope this message finds you well"],["you need",", "],[",","\n"],["8","-02"],["8","-04"],[" this ","way"],["ard","."],["Nora ","placed the "],[".\n\nBest regards",",\n"],["se ","you need, "],["forw","ard."],["Follow the requested wording and format. Item ","P1A-12-0"],[". I ","look forward to our continu"],["thing el","se you need, "],["you would like to improve","?"],["feel free to ask",".\""],[". If there's any","thing else you need, "],["upd",
[...]
