{
  "format": "layercake-utf8-concatenative-bpe/1",
  "normalization": "NONE",
  "piece_semantics": "UTF8_CONCATENATE_EXACTLY",
  "tokenizers_json": {
    "added_tokens": [
      {
        "content": "[UNK]",
        "id": 0,
        "lstrip": false,
        "normalized": false,
        "rstrip": false,
        "single_word": false,
        "special": true
      }
    ],
    "decoder": null,
    "model": {
      "byte_fallback": false,
      "continuing_subword_prefix": null,
      "dropout": null,
      "end_of_word_suffix": null,
      "fuse_unk": false,
      "ignore_merges": false,
      "merges": [
        [
          "e",
          " "
        ],
        [
          "t",
          "h"
        ],
        [
          "t",
          " "
        ],
        [
          "d",
          " "
        ],
        [
          "i",
          "n"
        ],
        [
          "o",
          "n"
        ],
        [
          "s",
          " "
        ],
        [
          " ",
          "th"
        ],
        [
          "t",
          "e"
        ],
        [
          "o",
          "r"
        ],
        [
          "a",
          "n"
        ],
        [
          "r",
          "e"
        ],
        [
          "o",
          "u"
        ],
        [
          "e",
          "n"
        ],
        [
          " th",
          "e "
        ],
        [
          "-",
          "0"
        ],
        [
          "e",
          "s"
        ],
        [
          "e",
          "r"
        ],
        [
          "in",
          "g"
        ],
        [
          "i",
          "s "
        ],
        [
          ".",
          " "
        ],
        [
          "o",
          " "
        ],
        [
          "f",
          "or"
        ],
        [
          "a",
          "s"
        ],
        [
          "a",
          "r"
        ],
        [
          ".",
          "\n"
        ],
        [
          "e",
          "d "
        ],
        [
          "y",
          " "
        ],
        [
          "e",
          "l"
        ],
        [
          "ing",
          " "
        ],
        [
          ":",
          " "
        ],
        [
          "a",
          " "
        ],
        [
          "o",
          "m"
        ],
        [
          "t",
          "i"
        ],
        [
          "p",
          "l"
        ],
        [
          "P",
          "1"
        ],
        [
          "th",
          "e "
        ],
        [
          "e",
          "t"
        ],
        [
          "i",
          "s"
        ],
        [
          "P1",
          "A"
        ],
        [
          "an",
          "d "
        ],
        [
          "l",
          " "
        ],
        [
          "a",
          "c"
        ],
        [
          "2",
          "0"
        ],
        [
          ",",
          " "
        ],
        [
          "m",
          "a"
        ],
        [
          "on",
          " "
        ],
        [
          "N",
          "1"
        ],
        [
          "n",
          "o"
        ],
        [
          "w",
          "i"
        ],
        [
          "t",
          "o "
        ],
        [
          "k",
          " "
        ],
        [
          "c",
          "e "
        ],
        [
          "T",
          "h"
        ],
        [
          "for",
          " "
        ],
        [
          "P1A",
          "-0"
        ],
        [
          "N",
          "2"
        ],
        [
          "q",
          "u"
        ],
        [
          "R",
          "e"
        ],
        [
          "r",
          "i"
        ],
        [
          "y",
          "ou"
        ],
        [
          "-",
          "N2"
        ],
        [
          "-N2",
          "20"
        ],
        [
          "a",
          "y"
        ],
        [
          ";",
          " "
        ],
        [
          "s",
          "u"
        ],
        [
          "1",
          "0"
        ],
        [
          "l",
          "y "
        ],
        [
          "e",
          "d"
        ],
        [
          "a",
          "t "
        ],
        [
          "r",
          "o"
        ],
        [
          "qu",
          "es"
        ],
        [
          "e ",
          "th"
        ],
        [
          "t ",
          "b"
        ],
        [
          "wi",
          "th"
        ],
        [
          "u",
          "r"
        ],
        [
          "e",
          "x"
        ],
        [
          "te",
          "m"
        ],
        [
          "c",
          "on"
        ],
        [
          "m",
          "e"
        ],
        [
          "pl",
          "i"
        ],
        [
          "su",
          "p"
        ],
        [
          "f",
          "r"
        ],
        [
          "er",
          " "
        ],
        [
          "te",
          "n"
        ],
        [
          "l",
          "y"
        ],
        [
          "e th",
          "is "
        ],
        [
          "pli",
          "ed "
        ],
        [
          "sup",
          "plied "
        ],
        [
          "s",
          "en"
        ],
        [
          "te",
          "x"
        ],
        [
          "c",
          "l"
        ],
        [
          "M",
          "A"
        ],
        [
          "d",
          "ay"
        ],
        [
          "s",
          "w"
        ],
        [
          "te",
          "d "
        ],
        [
          "re",
          "ques"
        ],
        [
          "[",
          "N1"
        ],
        [
          "[N1",
          "10"
        ],
        [
          "ti",
          "on "
        ],
        [
          "an",
          "sw"
        ],
        [
          "Th",
          "e "
        ],
        [
          "i",
          "c"
        ],
        [
          "you",
          " "
        ],
        [
          "ou",
          "t "
        ],
        [
          "a",
          "l"
        ],
        [
          "e",
          "c"
        ],
        [
          "sen",
          "ten"
        ],
        [
          "I",
          " "
        ],
        [
          "ac",
          "t"
        ],
        [
          "fr",
          "om"
        ],
        [
          "h",
          " "
        ],
        [
          "on",
          "e "
        ],
        [
          "a",
          "d"
        ],
        [
          "u",
          "s"
        ],
        [
          "a",
          "l "
        ],
        [
          "t",
          "as"
        ],
        [
          "o",
          "l"
        ],
        [
          "d",
          "e "
        ],
        [
          "t",
          "o"
        ],
        [
          "i",
          "r"
        ],
        [
          "l",
          "l "
        ],
        [
          "for",
          "ma"
        ],
        [
          "a",
          "b"
        ],
        [
          "with",
          "out "
        ],
        [
          "et",
          "ing "
        ],
        [
          "l",
          "is"
        ],
        [
          "e",
          "t "
        ],
        [
          "a",
          "g"
        ],
        [
          "a",
          "s "
        ],
        [
          "on",
          "ly"
        ],
        [
          "en",
          "t "
        ],
        [
          "o",
          "w"
        ],
        [
          "s",
          "i"
        ],
        [
          "R",
          "A"
        ],
        [
          "s ",
          "in"
        ],
        [
          "en",
          "t"
        ],
        [
          "n",
          "g"
        ],
        [
          "en",
          " "
        ],
        [
          "E",
          "ng"
        ],
        [
          "ur",
          "n"
        ],
        [
          "lis",
          "h "
        ],
        [
          "Eng",
          "lish "
        ],
        [
          "reques",
          "ted "
        ],
        [
          "i",
          "f"
        ],
        [
          "m",
          "us"
        ],
        [
          "t",
          "a"
        ],
        [
          "or",
          "d"
        ],
        [
          "L",
          "U"
        ],
        [
          "N",
          "O"
        ],
        [
          "r",
          " "
        ],
        [
          ". ",
          "I"
        ],
        [
          "i",
          "t"
        ],
        [
          "R",
          "I"
        ],
        [
          "as",
          "e "
        ],
        [
          "f",
          " "
        ],
        [
          "s",
          "h"
        ],
        [
          "tem",
          " "
        ],
        [
          " th",
          "is "
        ],
        [
          "]",
          " the "
        ],
        [
          ".",
          "”"
        ],
        [
          "i",
          "v"
        ],
        [
          "e ",
          "only"
        ],
        [
          "o",
          "p"
        ],
        [
          "p",
          "ro"
        ],
        [
          "e",
          ": "
        ],
        [
          "\n",
          "\n"
        ],
        [
          "mus",
          "t b"
        ],
        [
          "l",
          "d "
        ],
        [
          "d ",
          "the "
        ],
        [
          "ou",
          "ld "
        ],
        [
          "r",
          "a"
        ],
        [
          ". ",
          "Re"
        ],
        [
          "c",
          "is"
        ],
        [
          "ti",
          "on"
        ],
        [
          "re",
          "c"
        ],
        [
          "l",
          "ab"
        ],
        [
          " the ",
          "requested "
        ],
        [
          "m",
          " "
        ],
        [
          "w",
          " "
        ],
        [
          "P1A",
          "-"
        ],
        [
          "O",
          "N"
        ],
        [
          "3",
          "0"
        ],
        [
          "es",
          "e "
        ],
        [
          " th",
          "ese "
        ],
        [
          "tas",
          "k "
        ],
        [
          "f",
          "e"
        ],
        [
          "; ",
          "[N110"
        ],
        [
          "l",
          "in"
        ],
        [
          "R",
          "et"
        ],
        [
          "in",
          "forma"
        ],
        [
          "Ret",
          "urn"
        ],
        [
          "me",
          "eting "
        ],
        [
          "n",
          "d"
        ],
        [
          "no",
          "te"
        ],
        [
          "senten",
          "ce "
        ],
        [
          "from",
          " the "
        ],
        [
          "a",
          "t"
        ],
        [
          "ar",
          " "
        ],
        [
          "a",
          "re"
        ],
        [
          "lab",
          "el"
        ],
        [
          "ag",
          "e "
        ],
        [
          "wi",
          "ll "
        ],
        [
          "answ",
          "er "
        ],
        [
          "n",
          "o "
        ],
        [
          "v",
          "i"
        ],
        [
          "in",
          " the "
        ],
        [
          "er",
          ". "
        ],
        [
          "ra",
          "f"
        ],
        [
          "A",
          "V"
        ],
        [
          "O",
          "-N220"
        ],
        [
          "P",
          "AV"
        ],
        [
          "PAV",
          "O-N220"
        ],
        [
          "T",
          "H"
        ],
        [
          "s",
          "p"
        ],
        [
          "an",
          "d"
        ],
        [
          "g",
          "re"
        ],
        [
          "p",
          "ar"
        ],
        [
          "M",
          "I"
        ],
        [
          "w",
          "as "
        ],
        [
          "re",
          "ad"
        ],
        [
          "w",
          "h"
        ],
        [
          "e",
          "w "
        ],
        [
          "C",
          "om"
        ],
        [
          "day",
          "."
        ],
        [
          "a",
          "i"
        ],
        [
          "M",
          "ir"
        ],
        [
          ".\n",
          "\n"
        ],
        [
          ".\n",
          "Re"
        ],
        [
          ".”",
          " "
        ],
        [
          "c",
          "om"
        ],
        [
          "f",
          "act"
        ],
        [
          "fact",
          "s"
        ],
        [
          "A",
          "S"
        ],
        [
          "cis",
          "e "
        ],
        [
          "on",
          "g"
        ],
        [
          "t",
          ": "
        ],
        [
          "el",
          "ong"
        ],
        [
          "u",
          "l"
        ],
        [
          "e ",
          "the "
        ],
        [
          "s",
          "ta"
        ],
        [
          "N",
          "or"
        ],
        [
          "d",
          "et"
        ],
        [
          "det",
          "ai"
        ],
        [
          " ",
          "ex"
        ],
        [
          "P",
          "ri"
        ],
        [
          "Pri",
          "y"
        ],
        [
          "0",
          "5"
        ],
        [
          "an",
          "g"
        ],
        [
          " ex",
          "act"
        ],
        [
          "es",
          "s"
        ],
        [
          "l",
          "u"
        ],
        [
          "senten",
          "c"
        ],
        [
          "tem ",
          "P1A-0"
        ],
        [
          "l",
          "e"
        ],
        [
          "A",
          "sh"
        ],
        [
          "W",
          "E"
        ],
        [
          "m",
          "e "
        ],
        [
          "or",
          " "
        ],
        [
          "o",
          "s"
        ],
        [
          "v",
          "er"
        ],
        [
          "a",
          "d the "
        ],
        [
          "in",
          " "
        ],
        [
          "ol",
          "l"
        ],
        [
          "raf",
          "t "
        ],
        [
          "elong",
          " "
        ],
        [
          "ar",
          "d"
        ],
        [
          "P1A-",
          "1"
        ],
        [
          "9",
          "WE"
        ],
        [
          "c",
          "o"
        ],
        [
          "MI",
          "RA"
        ],
        [
          "m",
          "ess"
        ],
        [
          "e",
          "s "
        ],
        [
          "si",
          "de "
        ],
        [
          "1",
          "J"
        ],
        [
          "1J",
          "ON"
        ],
        [
          "l",
          "o"
        ],
        [
          "el",
          " "
        ],
        [
          "7",
          "TH"
        ],
        [
          "E",
          "O"
        ],
        [
          "7TH",
          "EO"
        ],
        [
          "d",
          "i"
        ],
        [
          "3",
          "LU"
        ],
        [
          "I",
          "S"
        ],
        [
          "Return",
          " exact"
        ],
        [
          "3LU",
          "IS"
        ],
        [
          "4",
          "NO"
        ],
        [
          "4NO",
          "RA"
        ],
        [
          "t",
          "w"
        ],
        [
          "re",
          "n"
        ],
        [
          "tw",
          "o "
        ],
        [
          "O",
          "MA"
        ],
        [
          "OMA",
          "R"
        ],
        [
          "to",
          " this "
        ],
        [
          "g",
          "ard"
        ],
        [
          "detai",
          "l"
        ],
        [
          "ec",
          "if"
        ],
        [
          "sp",
          "ecif"
        ],
        [
          "informa",
          "tion "
        ],
        [
          "u",
          "m"
        ],
        [
          "e",
          "ar "
        ],
        [
          "2",
          "AS"
        ],
        [
          "H",
          "A"
        ],
        [
          "2AS",
          "HA"
        ],
        [
          "tex",
          "t"
        ],
        [
          "ou",
          "r "
        ],
        [
          "j",
          "ec"
        ],
        [
          " ",
          "is "
        ],
        [
          "no",
          "t "
        ],
        [
          "b",
          "o"
        ],
        [
          " th",
          "at "
        ],
        [
          "6",
          "P"
        ],
        [
          "Y",
          "A"
        ],
        [
          "t ",
          "is "
        ],
        [
          "RI",
          "YA"
        ],
        [
          "6P",
          "RIYA"
        ],
        [
          "tex",
          "t "
        ],
        [
          "pl",
          "e"
        ],
        [
          "a",
          "tion "
        ],
        [
          "R",
          "es"
        ],
        [
          "4",
          "5"
        ],
        [
          "k",
          "e "
        ],
        [
          "p",
          "on"
        ],
        [
          "Res",
          "pon"
        ],
        [
          "Respon",
          "d "
        ],
        [
          "m",
          "ar"
        ],
        [
          "U",
          "s"
        ],
        [
          "Us",
          "e only"
        ],
        [
          "r",
          "ac"
        ],
        [
          "ou",
          "t"
        ],
        [
          "1",
          "5"
        ],
        [
          "f",
          "in"
        ],
        [
          "p",
          "p"
        ],
        [
          "fe",
          "ren"
        ],
        [
          "c",
          "ou"
        ],
        [
          "s in",
          " "
        ],
        [
          "8",
          "U"
        ],
        [
          "8U",
          "MA"
        ],
        [
          "must b",
          "e "
        ],
        [
          "c",
          "an"
        ],
        [
          "k",
          "no"
        ],
        [
          "E",
          "RI"
        ],
        [
          "V",
          "ERI"
        ],
        [
          "VERI",
          "-N220"
        ],
        [
          "c",
          "h"
        ],
        [
          "MA",
          "-N220"
        ],
        [
          "LU",
          "MA-N220"
        ],
        [
          "R",
          "U"
        ],
        [
          "]",
          " "
        ],
        [
          "NO",
          "RU"
        ],
        [
          "NORU",
          "-N220"
        ],
        [
          "s",
          "e"
        ],
        [
          "lin",
          "e "
        ],
        [
          "sta",
          "tem"
        ],
        [
          "sentenc",
          "e: "
        ],
        [
          "statem",
          "ent"
        ],
        [
          "2",
          "-0"
        ],
        [
          "3",
          "-0"
        ],
        [
          "v",
          "ent "
        ],
        [
          "to ",
          "one "
        ],
        [
          "ic",
          "k"
        ],
        [
          "s in",
          "to one "
        ],
        [
          "sentence ",
          "without "
        ],
        [
          "label",
          "s in "
        ],
        [
          "must be ",
          "`"
        ],
        [
          "line ",
          "must be `"
        ],
        [
          "L",
          "u"
        ],
        [
          "w",
          "ord"
        ],
        [
          "pl",
          "ac"
        ],
        [
          "Th",
          "e"
        ],
        [
          "Mir",
          "a "
        ],
        [
          "E",
          "] the "
        ],
        [
          "o",
          "f "
        ],
        [
          ", ",
          "and "
        ],
        [
          "ing ",
          "and "
        ],
        [
          "feren",
          "ce "
        ],
        [
          "k",
          ". Re"
        ],
        [
          "k. Re",
          "ference "
        ],
        [
          ". ",
          "C"
        ],
        [
          "n",
          "ew "
        ],
        [
          "7",
          "0"
        ],
        [
          "con",
          "text"
        ],
        [
          ",",
          "\n\n"
        ],
        [
          "g",
          "iv"
        ],
        [
          "answ",
          "er. "
        ],
        [
          "as",
          "t "
        ],
        [
          "U",
          "m"
        ],
        [
          "Um",
          "a "
        ],
        [
          "par",
          "c"
        ],
        [
          "ed ",
          "the "
        ],
        [
          "b",
          "jec"
        ],
        [
          "pl",
          "et"
        ],
        [
          "ad the ",
          "supplied "
        ],
        [
          "G",
          "iv"
        ],
        [
          "ou",
          "nd"
        ],
        [
          "must b",
          "elong "
        ],
        [
          "e",
          "i"
        ],
        [
          "W",
          "ei"
        ],
        [
          "to",
          " the "
        ],
        [
          "plet",
          "e this "
        ],
        [
          "p",
          "rac"
        ],
        [
          "ti",
          "ce "
        ],
        [
          "English ",
          "prac"
        ],
        [
          "plete this ",
          "English prac"
        ],
        [
          "tice ",
          "tas"
        ],
        [
          "plete this English prac",
          "tice tas"
        ],
        [
          "1",
          "6"
        ],
        [
          "ould ",
          "you "
        ],
        [
          "Nor",
          "a "
        ],
        [
          "b",
          "ound"
        ],
        [
          "oll",
          "ow"
        ],
        [
          "bound",
          "ed "
        ],
        [
          "g",
          "h"
        ],
        [
          "u",
          "t "
        ],
        [
          "Use only",
          " the "
        ],
        [
          "T",
          "ick"
        ],
        [
          "Tick",
          "et "
        ],
        [
          "Priy",
          "a "
        ],
        [
          "Ash",
          "a "
        ],
        [
          "0",
          "8"
        ],
        [
          "1",
          "4"
        ],
        [
          "Com",
          "plete this English practice tas"
        ],
        [
          "Complete this English practice tas",
          "k. Reference "
        ],
        [
          "or",
          "k "
        ],
        [
          "ple",
          "ase "
        ],
        [
          "l",
          "i"
        ],
        [
          "w",
          "ri"
        ],
        [
          "wri",
          "t"
        ],
        [
          "t",
          ". I"
        ],
        [
          "F",
          "ollow"
        ],
        [
          "for ",
          "you"
        ],
        [
          " ",
          "and "
        ],
        [
          "0",
          "9"
        ],
        [
          "m",
          "is"
        ],
        [
          "t",
          "ly "
        ],
        [
          "rec",
          "tly "
        ],
        [
          "di",
          "rectly "
        ],
        [
          "an",
          "k "
        ],
        [
          "kno",
          "w"
        ],
        [
          "f",
          "ir"
        ],
        [
          "i",
          "et "
        ],
        [
          "for ",
          "i"
        ],
        [
          "te",
          "ri"
        ],
        [
          "f",
          "ul"
        ],
        [
          "forma",
          "t. I"
        ],
        [
          " the requested ",
          "word"
        ],
        [
          "ing and ",
          "format. I"
        ],
        [
          "Follow",
          " the requested word"
        ],
        [
          "Follow the requested word",
          "ing and format. I"
        ],
        [
          "c",
          "are"
        ],
        [
          "qu",
          "iet "
        ],
        [
          "ful",
          "ly "
        ],
        [
          "W",
          "ork "
        ],
        [
          "el",
          "ow"
        ],
        [
          "t b",
          "elow"
        ],
        [
          "tex",
          "t below"
        ],
        [
          "from the ",
          "text below"
        ],
        [
          ". C",
          "ase "
        ],
        [
          "care",
          "fully "
        ],
        [
          "Work ",
          "carefully "
        ],
        [
          "from the text below",
          ". Case "
        ],
        [
          "Work carefully ",
          "from the text below. Case "
        ],
        [
          ",",
          " th"
        ],
        [
          "'",
          "s "
        ],
        [
          "d",
          "e"
        ],
        [
          "w",
          "el"
        ],
        [
          "English ",
          "task "
        ],
        [
          "to this ",
          "bounded "
        ],
        [
          "Respond ",
          "directly "
        ],
        [
          "English task ",
          "("
        ],
        [
          "to this bounded ",
          "English task ("
        ],
        [
          "Respond directly ",
          "to this bounded English task ("
        ],
        [
          " ",
          "must belong "
        ],
        [
          "1",
          "1"
        ],
        [
          "Re",
          "ad the supplied "
        ],
        [
          "en ",
          "answer. "
        ],
        [
          "context",
          ", th"
        ],
        [
          "Read the supplied ",
          "context, th"
        ],
        [
          "en answer. ",
          "Ticket "
        ],
        [
          "Read the supplied context, th",
          "en answer. Ticket "
        ],
        [
          "5",
          "OMAR"
        ],
        [
          "n",
          " "
        ],
        [
          "ma",
          "teri"
        ],
        [
          "materi",
          "al "
        ],
        [
          "supplied ",
          "material "
        ],
        [
          "Use only the ",
          "supplied material "
        ],
        [
          "Use only the supplied material ",
          "for i"
        ],
        [
          "ro",
          "om"
        ],
        [
          "information ",
          "giv"
        ],
        [
          "er",
          "cise "
        ],
        [
          "for ",
          "ex"
        ],
        [
          "e only",
          " the requested "
        ],
        [
          "answer ",
          "for ex"
        ],
        [
          "Giv",
          "e only the requested "
        ],
        [
          "answer for ex",
          "ercise "
        ],
        [
          "Give only the requested ",
          "answer for exercise "
        ],
        [
          "bo",
          "o"
        ],
        [
          "W",
          "h"
        ],
        [
          "ould you ",
          "please "
        ],
        [
          "and",
          "l"
        ],
        [
          "H",
          "andl"
        ],
        [
          "l",
          "ang"
        ],
        [
          "u",
          "age "
        ],
        [
          "e this ",
          "lang"
        ],
        [
          "without ",
          "out"
        ],
        [
          ". Re",
          "f "
        ],
        [
          "task ",
          "without out"
        ],
        [
          "facts",
          ". Ref "
        ],
        [
          "side ",
          "facts. Ref "
        ],
        [
          "Handl",
          "e this lang"
        ],
        [
          "uage ",
          "task without out"
        ],
        [
          "Handle this lang",
          "uage task without out"
        ],
        [
          "Handle this language task without out",
          "side facts. Ref "
        ],
        [
          "u",
          "de "
        ],
        [
          "t",
          "e "
        ],
        [
          "ti",
          "me "
        ],
        [
          "tion",
          ": "
        ],
        [
          "mess",
          "age "
        ],
        [
          "T",
          "] "
        ],
        [
          "d",
          "o"
        ],
        [
          "b",
          "y "
        ],
        [
          "s",
          ": "
        ],
        [
          "ed",
          "; [N110"
        ],
        [
          "ol",
          "d"
        ],
        [
          "an",
          " "
        ],
        [
          "cl",
          "os"
        ],
        [
          "com",
          "m"
        ],
        [
          "ac",
          "t "
        ],
        [
          "ex",
          "act "
        ],
        [
          "t b",
          "e "
        ],
        [
          ". ",
          "The "
        ],
        [
          "no",
          "t be "
        ],
        [
          "i",
          "tem"
        ],
        [
          "op",
          "en"
        ],
        [
          "can",
          "not be "
        ],
        [
          "information giv",
          "en"
        ],
        [
          "co",
          "d"
        ],
        [
          "on",
          "ce "
        ],
        [
          "e",
          ", "
        ],
        [
          "h",
          "el"
        ],
        [
          "hel",
          "p"
        ],
        [
          ")",
          ".\n"
        ],
        [
          "note",
          "boo"
        ],
        [
          "n ",
          "from the "
        ],
        [
          "know",
          "n from the "
        ],
        [
          "cannot be ",
          "known from the "
        ],
        [
          "cannot be known from the ",
          "information given"
        ],
        [
          "lu",
          "e "
        ],
        [
          "f",
          "old"
        ],
        [
          "9WE",
          "I"
        ],
        [
          "b",
          "e "
        ],
        [
          "n",
          "at"
        ],
        [
          "-0",
          "3"
        ],
        [
          "nat",
          "ur"
        ],
        [
          "a",
          "d "
        ],
        [
          "cl",
          "as"
        ],
        [
          "-0",
          "6"
        ],
        [
          "0",
          "MIRA"
        ],
        [
          " th",
          "e"
        ],
        [
          "-0",
          "2"
        ],
        [
          "no",
          "te "
        ],
        [
          "t",
          "="
        ],
        [
          "t ",
          "re"
        ],
        [
          "-0",
          "5"
        ],
        [
          "w",
          "ould "
        ],
        [
          "u",
          "nd"
        ],
        [
          "ma",
          "ll "
        ],
        [
          "und",
          "er"
        ],
        [
          "parc",
          "el "
        ],
        [
          "D",
          "raft "
        ],
        [
          "a",
          "y "
        ],
        [
          "n",
          "a"
        ],
        [
          "from",
          " "
        ],
        [
          "clas",
          "s "
        ],
        [
          "Work carefully from the text below. Case ",
          "P1A-0"
        ],
        [
          "en ",
          "noteboo"
        ],
        [
          "lue ",
          "fold"
        ],
        [
          "re",
          "s"
        ],
        [
          "t ",
          "d"
        ],
        [
          "b",
          "lue fold"
        ],
        [
          "and ",
          "no "
        ],
        [
          "for you",
          "r "
        ],
        [
          "Handle this language task without outside facts. Ref ",
          "P1A-0"
        ],
        [
          "ed",
          "."
        ],
        [
          "me",
          ": "
        ],
        [
          "an",
          "y "
        ],
        [
          "I ",
          "h"
        ],
        [
          "o",
          "v"
        ],
        [
          "s",
          ", "
        ],
        [
          ": ",
          "“"
        ],
        [
          "ly ",
          "two "
        ],
        [
          "Return exact",
          "ly two "
        ],
        [
          "b",
          "e"
        ],
        [
          "Complete this English practice task. Reference ",
          "P1A-0"
        ],
        [
          "Respond directly to this bounded English task (",
          "P1A-0"
        ],
        [
          "gre",
          "en noteboo"
        ],
        [
          "Th",
          "ur"
        ],
        [
          "Thur",
          "s"
        ],
        [
          ".\nRe",
          "writ"
        ],
        [
          "in ",
          "one "
        ],
        [
          "Read the supplied context, then answer. Ticket ",
          "P1A-0"
        ],
        [
          "Give only the requested answer for exercise ",
          "P1A-0"
        ],
        [
          "s",
          "te"
        ],
        [
          "s",
          "mall "
        ],
        [
          ":",
          "30"
        ],
        [
          "09",
          ":30"
        ],
        [
          "Follow the requested wording and format. I",
          "tem P1A-0"
        ],
        [
          "on",
          "ly "
        ],
        [
          ":",
          "20"
        ],
        [
          ":",
          "45"
        ],
        [
          "11",
          ":45"
        ],
        [
          "sh",
          "or"
        ],
        [
          "-0",
          "4"
        ],
        [
          "Use only the supplied material for i",
          "tem P1A-0"
        ],
        [
          "n",
          "es"
        ],
        [
          "14",
          ":20"
        ],
        [
          ":",
          "05"
        ],
        [
          "?",
          " "
        ],
        [
          "s ",
          "you "
        ],
        [
          "Th",
          "ank "
        ],
        [
          "16",
          ":05"
        ],
        [
          "b",
          "r"
        ],
        [
          "Thank ",
          "you "
        ],
        [
          "mis",
          "s"
        ],
        [
          ":",
          "15"
        ],
        [
          "er",
          "e "
        ],
        [
          "e: ",
          "N1"
        ],
        [
          "08",
          ":15"
        ],
        [
          "miss",
          "ing "
        ],
        [
          "F",
          "ri"
        ],
        [
          "M",
          "on"
        ],
        [
          "answer ",
          "cannot be known from the information given"
        ],
        [
          "s",
          "."
        ],
        [
          "W",
          "ed"
        ],
        [
          "Wed",
          "nes"
        ],
        [
          "quiet ",
          "room"
        ],
        [
          "on",
          "t d"
        ],
        [
          "fr",
          "ont d"
        ],
        [
          "front d",
          "es"
        ],
        [
          "T",
          "u"
        ],
        [
          "ing ",
          "missing "
        ],
        [
          "Tu",
          "es"
        ],
        [
          "rec",
          "i"
        ],
        [
          "bjec",
          "t: "
        ],
        [
          ".\n",
          "Return exactly two "
        ],
        [
          "or",
          "ro"
        ],
        [
          "om",
          "orro"
        ],
        [
          "-",
          "A"
        ],
        [
          "e",
          "ast "
        ],
        [
          "h",
          "al"
        ],
        [
          "u",
          "n"
        ],
        [
          "east ",
          "hal"
        ],
        [
          "ing ",
          "are"
        ],
        [
          "read",
          "ing are"
        ],
        [
          "for ",
          "N1"
        ],
        [
          "D",
          "ear "
        ],
        [
          "t",
          "omorro"
        ],
        [
          "i",
          "z"
        ],
        [
          "si",
          "on"
        ],
        [
          "cl",
          "ar"
        ],
        [
          "cl",
          "ear "
        ],
        [
          "ic",
          "ation "
        ],
        [
          "as",
          "su"
        ],
        [
          "ques",
          "tion "
        ],
        [
          "con",
          "cise "
        ],
        [
          "ad",
          "d"
        ],
        [
          "if",
          "ication "
        ],
        [
          "clar",
          "ification "
        ],
        [
          "assu",
          "m"
        ],
        [
          "cl",
          "ude "
        ],
        [
          "0",
          "3"
        ],
        [
          "t",
          ", "
        ],
        [
          "not ",
          "in"
        ],
        [
          "any ",
          "detail"
        ],
        [
          "d",
          "raft "
        ],
        [
          "C",
          "ould you please "
        ],
        [
          "O",
          "mar"
        ],
        [
          "cou",
          "n"
        ],
        [
          "na",
          "me: "
        ],
        [
          "coun",
          "t: "
        ],
        [
          "A",
          "s"
        ],
        [
          "S",
          "T"
        ],
        [
          "re",
          "vi"
        ],
        [
          "tion",
          "="
        ],
        [
          "ou",
          "s "
        ],
        [
          "Lu",
          "is "
        ],
        [
          "from",
          " these "
        ],
        [
          "0",
          "6"
        ],
        [
          "f",
          "i"
        ],
        [
          "in",
          "e the "
        ],
        [
          "S",
          "u"
        ],
        [
          "er",
          "."
        ],
        [
          "ord",
          "er "
        ],
        [
          "J",
          "on"
        ],
        [
          "ing ",
          "any detail"
        ],
        [
          "detail",
          "s."
        ],
        [
          "'",
          "m "
        ],
        [
          "p",
          "ol"
        ],
        [
          "ar",
          "y"
        ],
        [
          "d",
          "o "
        ],
        [
          "in",
          "ste"
        ],
        [
          "es",
          "sion"
        ],
        [
          "inste",
          "ad "
        ],
        [
          "e",
          "ma"
        ],
        [
          "i",
          "l "
        ],
        [
          "ema",
          "il "
        ],
        [
          "2",
          ".\n"
        ],
        [
          "P1A-",
          "10"
        ],
        [
          " that ",
          "the "
        ],
        [
          "to",
          "."
        ],
        [
          "le",
          "f"
        ],
        [
          "n",
          "once "
        ],
        [
          "s",
          "t "
        ],
        [
          "ing ",
          "informa"
        ],
        [
          "a ",
          "shor"
        ],
        [
          "fin",
          "al "
        ],
        [
          "nonce ",
          "statement"
        ],
        [
          "-",
          "text "
        ],
        [
          "M",
          "ar"
        ],
        [
          "P",
          "ut "
        ],
        [
          "S",
          "ay"
        ],
        [
          "S",
          "um"
        ],
        [
          "T",
          "urn"
        ],
        [
          "`",
          "."
        ],
        [
          "`",
          " and "
        ],
        [
          "a",
          "in"
        ],
        [
          "b",
          "ine the "
        ],
        [
          "d",
          "ro"
        ],
        [
          "d",
          "ow"
        ],
        [
          "d",
          "s into one "
        ],
        [
          "d",
          "s you "
        ],
        [
          "e",
          "vent "
        ],
        [
          "f",
          "lu"
        ],
        [
          "f",
          "ession"
        ],
        [
          "g",
          "ic"
        ],
        [
          "i",
          "ed"
        ],
        [
          "k",
          "dow"
        ],
        [
          "n",
          ". The "
        ],
        [
          "n",
          "clude "
        ],
        [
          "r",
          "te"
        ],
        [
          "s",
          "ay"
        ],
        [
          "e ",
          "email "
        ],
        [
          "d ",
          "no "
        ],
        [
          "d ",
          "line must be `"
        ],
        [
          " the ",
          "labels in "
        ],
        [
          " the ",
          "final "
        ],
        [
          "ing",
          "; "
        ],
        [
          ". ",
          "Return exact"
        ],
        [
          "as",
          "on "
        ],
        [
          "el",
          "ds into one "
        ],
        [
          ": ",
          "[N110"
        ],
        [
          "a ",
          "gre"
        ],
        [
          "pl",
          "ain"
        ],
        [
          "the ",
          "se"
        ],
        [
          "the ",
          "event "
        ],
        [
          "and ",
          "clos"
        ],
        [
          ", ",
          "cou"
        ],
        [
          "k ",
          "one "
        ],
        [
          "; ",
          "do "
        ],
        [
          "with",
          " these "
        ],
        [
          "con",
          "cis"
        ],
        [
          "con",
          "d line must be `"
        ],
        [
          "ly",
          " the final "
        ],
        [
          "e this ",
          "supplied "
        ],
        [
          "e this ",
          "as "
        ],
        [
          "e this ",
          "message "
        ],
        [
          "supplied ",
          "statement"
        ],
        [
          "supplied ",
          "fi"
        ],
        [
          "reques",
          "t is "
        ],
        [
          "answ",
          "er."
        ],
        [
          "The ",
          "request is "
        ],
        [
          "al",
          ", cou"
        ],
        [
          "one ",
          "pro"
        ],
        [
          "ad",
          "d no "
        ],
        [
          "al ",
          "English "
        ],
        [
          "al ",
          "ord"
        ],
        [
          "without ",
          "comm"
        ],
        [
          "eting ",
          "and clos"
        ],
        [
          "ent ",
          "sentence without "
        ],
        [
          "ent",
          "ary"
        ],
        [
          ". I",
          "nclude "
        ],
        [
          "it",
          "e email "
        ],
        [
          "op",
          "e this message "
        ],
        [
          " these ",
          "supplied fi"
        ],
        [
          "lin",
          "es "
        ],
        [
          "Return",
          " the labels in "
        ],
        [
          "er. ",
          "Return the labels in "
        ],
        [
          "Com",
          "bine the "
        ],
        [
          ".\nRe",
          "ason "
        ],
        [
          ".” ",
          "As"
        ],
        [
          "facts",
          "."
        ],
        [
          "P1A-1",
          "2-0"
        ],
        [
          "P1A-1",
          "3-0"
        ],
        [
          "lo",
          "gic"
        ],
        [
          "gard",
          "s"
        ],
        [
          "specif",
          "ied"
        ],
        [
          "text ",
          "in one "
        ],
        [
          "mar",
          "iz"
        ],
        [
          "fin",
          "ds you "
        ],
        [
          "pp",
          "ing any detail"
        ],
        [
          "sentence: ",
          "“"
        ],
        [
          "vent ",
          "an "
        ],
        [
          "s into one ",
          "concis"
        ],
        [
          "sentence without ",
          "add"
        ],
        [
          "labels in ",
          "logic"
        ],
        [
          "of ",
          "assum"
        ],
        [
          "new ",
          "facts."
        ],
        [
          "fir",
          "st "
        ],
        [
          "wel",
          "l"
        ],
        [
          "e, ",
          "flu"
        ],
        [
          "natur",
          "al English "
        ],
        [
          "under",
          "specified"
        ],
        [
          "Draft ",
          "a shor"
        ],
        [
          "class ",
          "PAVO-N220"
        ],
        [
          "and no ",
          "Mar"
        ],
        [
          "I h",
          "ope this message "
        ],
        [
          "s, ",
          "“"
        ],
        [
          ".\nRewrit",
          "e this as "
        ],
        [
          "only ",
          "from these "
        ],
        [
          "? ",
          "Say"
        ],
        [
          "answer cannot be known from the information given",
          "; do "
        ],
        [
          "ing missing ",
          "details."
        ],
        [
          "clear ",
          "sentence: "
        ],
        [
          "question ",
          "instead "
        ],
        [
          "concise ",
          "clarification "
        ],
        [
          "t, ",
          "pol"
        ],
        [
          "not in",
          "vent an "
        ],
        [
          "ous ",
          "sentence: “"
        ],
        [
          "Su",
          "bject: "
        ],
        [
          "order ",
          "without comm"
        ],
        [
          " that the ",
          "answer cannot be known from the information given; do "
        ],
        [
          "ing informa",
          "tion: "
        ],
        [
          "nonce statement",
          "s: "
        ],
        [
          "-text ",
          "lines "
        ],
        [
          "Put ",
          "the event "
        ],
        [
          "Sum",
          "mariz"
        ],
        [
          "Turn",
          " these supplied fi"
        ],
        [
          "` and ",
          "the se"
        ],
        [
          "dro",
          "pping any detail"
        ],
        [
          "fession",
          "al, cou"
        ],
        [
          "kdow",
          "n. The "
        ],
        [
          "rte",
          "ous sentence: “"
        ],
        [
          "say",
          "s, “"
        ],
        [
          "ing; ",
          "add no "
        ],
        [
          ". Return exact",
          "ly the final "
        ],
        [
          "elds into one ",
          "natural English "
        ],
        [
          "a gre",
          "eting and clos"
        ],
        [
          "plain",
          "-text lines "
        ],
        [
          "k one ",
          "concise clarification "
        ],
        [
          "with these ",
          "note"
        ],
        [
          "e this supplied ",
          "text in one "
        ],
        [
          "supplied statement",
          "s into one concis"
        ],
        [
          "The request is ",
          "underspecified"
        ],
        [
          "one pro",
          "fessional, cou"
        ],
        [
          "al ord",
          "er. Return the labels in "
        ],
        [
          "ent sentence without ",
          "dropping any detail"
        ],
        [
          "entary",
          ": [N110"
        ],
        [
          ". Include ",
          "a greeting and clos"
        ],
        [
          "ite email ",
          "from "
        ],
        [
          "Combine the ",
          "supplied statements into one concis"
        ],
        [
          ".\nReason ",
          "only from these "
        ],
        [
          ".” As",
          "k one concise clarification "
        ],
        [
          "finds you ",
          "well"
        ],
        [
          "sentence without add",
          "ing information: "
        ],
        [
          "labels in logic",
          "al order. Return the labels in "
        ],
        [
          "of assum",
          "ing missing details."
        ],
        [
          "first ",
          "line must be `"
        ],
        [
          "e, flu",
          "ent sentence without dropping any detail"
        ],
        [
          "Draft a shor",
          "t, pol"
        ],
        [
          "and no Mar",
          "kdown. The "
        ],
        [
          "I hope this message ",
          "finds you well"
        ],
        [
          ".\nRewrite this as ",
          "one professional, cou"
        ],
        [
          "? Say",
          " that the answer cannot be known from the information given; do "
        ],
        [
          "question instead ",
          "of assuming missing details."
        ],
        [
          "not invent an ",
          "answer."
        ],
        [
          "order without comm",
          "entary: [N110"
        ],
        [
          "Put the event ",
          "labels in logical order. Return the labels in "
        ],
        [
          "Summariz",
          "e this supplied text in one "
        ],
        [
          "Turn these supplied fi",
          "elds into one natural English "
        ],
        [
          "` and the se",
          "cond line must be `"
        ],
        [
          "ing; add no ",
          "new facts."
        ],
        [
          ". Return exactly the final ",
          "class PAVO-N220"
        ],
        [
          "plain-text lines ",
          "and no Markdown. The "
        ],
        [
          "The request is underspecified",
          ": “"
        ],
        [
          ". Include a greeting and clos",
          "ing; add no new facts."
        ],
        [
          "Combine the supplied statements into one concis",
          "e, fluent sentence without dropping any detail"
        ],
        [
          ".\nReason only from these ",
          "nonce statements: "
        ],
        [
          ".” Ask one concise clarification ",
          "question instead of assuming missing details."
        ],
        [
          "Draft a short, pol",
          "ite email from "
        ],
        [
          ".\nRewrite this as one professional, cou",
          "rteous sentence: “"
        ],
        [
          "? Say that the answer cannot be known from the information given; do ",
          "not invent an answer."
        ],
        [
          "Put the event labels in logical order. Return the labels in ",
          "order without commentary: [N110"
        ],
        [
          "Summarize this supplied text in one ",
          "clear sentence: "
        ],
        [
          "Turn these supplied fields into one natural English ",
          "sentence without adding information: "
        ],
        [
          "plain-text lines and no Markdown. The ",
          "first line must be `"
        ],
        [
          "Combine the supplied statements into one concise, fluent sentence without dropping any detail",
          ": "
        ],
        [
          "ver",
          "y "
        ],
        [
          "m",
          "ov"
        ],
        [
          "ed ",
          "to "
        ],
        [
          "v",
          "is"
        ],
        [
          "pro",
          "vi"
        ],
        [
          "tomorro",
          "w"
        ],
        [
          "R",
          "E"
        ],
        [
          "ON",
          "E] the "
        ],
        [
          "Wh",
          "at "
        ],
        [
          "0",
          "4"
        ],
        [
          "8",
          ".\n"
        ],
        [
          "B",
          "es"
        ],
        [
          "t re",
          "gards"
        ],
        [
          "Bes",
          "t regards"
        ],
        [
          "Lu",
          "is"
        ],
        [
          "plac",
          "ed "
        ],
        [
          "item",
          ": "
        ],
        [
          "cod",
          "e: N1"
        ],
        [
          "vis",
          "it"
        ],
        [
          "code: N1",
          "9"
        ],
        [
          "The",
          "o"
        ],
        [
          "0",
          "2"
        ],
        [
          "blue fold",
          "er "
        ],
        [
          "li",
          "ke "
        ],
        [
          "I",
          "'m "
        ],
        [
          "r",
          "e "
        ],
        [
          "green noteboo",
          "k "
        ],
        [
          "ing",
          " the "
        ],
        [
          "O",
          "m"
        ],
        [
          "Om",
          "ar "
        ],
        [
          "9WE",
          "I "
        ],
        [
          "a",
          "v"
        ],
        [
          "for",
          " the "
        ],
        [
          "The",
          "o "
        ],
        [
          "J",
          "on "
        ],
        [
          "c",
          "op"
        ],
        [
          "ar",
          "e "
        ],
        [
          " ",
          "cop"
        ],
        [
          "te",
          "r"
        ],
        [
          " must belong ",
          "to."
        ],
        [
          ".\nReturn exactly two ",
          "plain-text lines and no Markdown. The first line must be `"
        ],
        [
          "4",
          ".\n"
        ],
        [
          "with",
          " "
        ],
        [
          "an",
          "k"
        ],
        [
          "\n\n",
          "Dear "
        ],
        [
          ",\n\n",
          "I hope this message finds you well"
        ],
        [
          "me",
          "et"
        ],
        [
          ".\n\n",
          "Best regards"
        ],
        [
          "meet",
          "ing"
        ],
        [
          "t",
          "an"
        ],
        [
          "lo",
          "c"
        ],
        [
          " cop",
          "i"
        ],
        [
          "r",
          "ou"
        ],
        [
          "read",
          "y"
        ],
        [
          "read",
          "y "
        ],
        [
          "6",
          ".\n"
        ],
        [
          "ed",
          "ul"
        ],
        [
          "ch",
          "edul"
        ],
        [
          "would ",
          "like "
        ],
        [
          " ",
          "was "
        ],
        [
          "i",
          "t is "
        ],
        [
          "fe",
          "el "
        ],
        [
          "ar",
          "d "
        ],
        [
          "ri",
          "v"
        ],
        [
          "small ",
          "parcel "
        ],
        [
          "ar",
          "riv"
        ],
        [
          "wh",
          "at "
        ],
        [
          "-0",
          "1"
        ],
        [
          "e th",
          "at "
        ],
        [
          "i",
          "t "
        ],
        [
          "t",
          "s "
        ],
        [
          "p",
          "os"
        ],
        [
          "me",
          "et "
        ],
        [
          "Mir",
          "a"
        ],
        [
          "will ",
          "meet "
        ],
        [
          "mess",
          "ag"
        ],
        [
          "om",
          " "
        ],
        [
          "i",
          "d"
        ],
        [
          "pp",
          "reci"
        ],
        [
          "m",
          "y "
        ],
        [
          "r",
          "and"
        ],
        [
          "rand",
          "om "
        ],
        [
          "0",
          "1"
        ],
        [
          ". ",
          "PAVO-N220"
        ],
        [
          "in",
          "d"
        ],
        [
          "g",
          "ra"
        ],
        [
          "Wei",
          " "
        ],
        [
          "o",
          "f"
        ],
        [
          "Priy",
          "a"
        ],
        [
          "in",
          "side "
        ],
        [
          "n",
          "e"
        ],
        [
          "N1",
          "20"
        ],
        [
          " the",
          "m "
        ],
        [
          ".\n\nBest regards",
          ",\n\n"
        ],
        [
          "to ",
          "NORU-N220"
        ],
        [
          "o",
          "bjec"
        ],
        [
          "7",
          ".\n"
        ],
        [
          "as",
          "k"
        ],
        [
          "'",
          "re "
        ],
        [
          "e ",
          "a "
        ],
        [
          "k",
          "ind"
        ],
        [
          "s",
          "or"
        ],
        [
          "Nor",
          "a"
        ],
        [
          "front des",
          "k"
        ],
        [
          "I'm ",
          "sor"
        ],
        [
          "I'm sor",
          "r"
        ],
        [
          "Could you please ",
          "specif"
        ],
        [
          "en",
          "d"
        ],
        [
          "s",
          "is"
        ],
        [
          "U",
          "ma"
        ],
        [
          "open",
          "ed the "
        ],
        [
          "would like ",
          "to "
        ],
        [
          "u",
          "p"
        ],
        [
          "gard",
          "en"
        ],
        [
          ".\n\n",
          "I "
        ],
        [
          "3",
          ".\n"
        ],
        [
          "ab",
          "out "
        ],
        [
          "of",
          " the "
        ],
        [
          "sis",
          "tan"
        ],
        [
          "ac",
          "tion="
        ],
        [
          "; ",
          "action="
        ],
        [
          "ed",
          "; "
        ],
        [
          "ex",
          "p"
        ],
        [
          ",\n\nI hope this message finds you well",
          ".\n\nI "
        ],
        [
          "th",
          "ing "
        ],
        [
          "se",
          "al"
        ],
        [
          "east hal",
          "l"
        ],
        [
          "d",
          "ay "
        ],
        [
          "as",
          "k "
        ],
        [
          " is ",
          "a "
        ],
        [
          "i",
          "ent"
        ],
        [
          ".\n",
          "[N110"
        ],
        [
          "?",
          "\""
        ],
        [
          "as",
          "sistan"
        ],
        [
          "0",
          ".\n"
        ],
        [
          "e",
          "re"
        ],
        [
          "Ash",
          "a"
        ],
        [
          "wel",
          "com"
        ],
        [
          "w",
          "an"
        ],
        [
          "B",
          "S"
        ],
        [
          "S",
          "-A"
        ],
        [
          "P1",
          "S-A"
        ],
        [
          "plac",
          "ed the "
        ],
        [
          "P1S-A",
          "BS"
        ],
        [
          "N",
          "E"
        ],
        [
          "ted ",
          "to "
        ],
        [
          "ic",
          "h "
        ],
        [
          ".\n\n",
          "Thank you "
        ],
        [
          "1",
          ".\n"
        ],
        [
          "reading are",
          "a"
        ],
        [
          "on ",
          "Tues"
        ],
        [
          "3LUIS",
          "-"
        ],
        [
          "e",
          "-"
        ],
        [
          ", ",
          "b"
        ],
        [
          "ex",
          "t "
        ],
        [
          "09:30",
          "."
        ],
        [
          "n",
          "ext "
        ],
        [
          "Thurs",
          "day"
        ],
        [
          "14:20",
          "."
        ],
        [
          "wan",
          "ted to "
        ],
        [
          "vi",
          "ce "
        ],
        [
          "9WEI",
          "-"
        ],
        [
          "9",
          ".\n"
        ],
        [
          "N2",
          "30"
        ],
        [
          "11:45",
          "."
        ],
        [
          "ta",
          "ke "
        ],
        [
          " ",
          "b"
        ],
        [
          "on ",
          "Wednes"
        ],
        [
          "meeting ",
          "note "
        ],
        [
          "M",
          "e"
        ],
        [
          "a",
          "k"
        ],
        [
          "What ",
          "exact "
        ],
        [
          "Me",
          "eting "
        ],
        [
          "provi",
          "de "
        ],
        [
          "1JON",
          "-"
        ],
        [
          ", b",
          "ut "
        ],
        [
          "Re",
          "ques"
        ],
        [
          "on ",
          "Mon"
        ],
        [
          "k",
          "s "
        ],
        [
          "t",
          "r"
        ],
        [
          "ed ",
          "c"
        ],
        [
          "Y",
          "ou"
        ],
        [
          "on ",
          "Fri"
        ],
        [
          "7THEO",
          "-"
        ],
        [
          "d",
          "el"
        ],
        [
          "c",
          "e"
        ],
        [
          "d",
          "u"
        ],
        [
          "e",
          "ar"
        ],
        [
          "ti",
          "c"
        ],
        [
          "pro",
          "du"
        ],
        [
          "08:15",
          "."
        ],
        [
          "our ",
          "meeting "
        ],
        [
          "li",
          "gh"
        ],
        [
          "de",
          "vice "
        ],
        [
          "av",
          "e "
        ],
        [
          "produ",
          "ce "
        ],
        [
          "m",
          "or"
        ],
        [
          "reques",
          "t "
        ],
        [
          "Y",
          "our "
        ],
        [
          "a",
          "m "
        ],
        [
          "p",
          "re"
        ],
        [
          "s",
          "e "
        ],
        [
          "in the ",
          "quiet room"
        ],
        [
          "Reques",
          "t "
        ],
        [
          "16:05",
          "."
        ],
        [
          "b",
          "er "
        ],
        [
          "provide ",
          "the "
        ],
        [
          "a",
          "tion"
        ],
        [
          "parc",
          "el"
        ],
        [
          "en",
          "su"
        ],
        [
          "N2",
          "10"
        ],
        [
          "e",
          "very "
        ],
        [
          "r",
          "ang"
        ],
        [
          "y",
          " the "
        ],
        [
          "ar",
          "rang"
        ],
        [
          "gh",
          " the "
        ],
        [
          "rou",
          "gh the "
        ],
        [
          "A",
          "Y"
        ],
        [
          "D",
          "AY"
        ],
        [
          "a ",
          "quiet "
        ],
        [
          "with",
          " the "
        ],
        [
          "DAY",
          "|"
        ],
        [
          "a quiet ",
          "meeting"
        ],
        [
          "ed ",
          "for "
        ],
        [
          " ",
          "ready"
        ],
        [
          "n",
          "um"
        ],
        [
          "w",
          "al"
        ],
        [
          "in",
          "v"
        ],
        [
          "N1",
          "30"
        ],
        [
          "revi",
          "ew "
        ],
        [
          "c",
          "oll"
        ],
        [
          "coll",
          "ec"
        ],
        [
          "e ",
          "to "
        ],
        [
          "N1",
          "8"
        ],
        [
          "p",
          "or"
        ],
        [
          "s",
          "chedul"
        ],
        [
          "I ",
          "can"
        ],
        [
          "en ",
          "be"
        ],
        [
          "meeting ",
          "note"
        ],
        [
          "3",
          "5"
        ],
        [
          "it",
          "'s "
        ],
        [
          "F",
          "i"
        ],
        [
          "al",
          "u"
        ],
        [
          "num",
          "ber "
        ],
        [
          "Fi",
          "x"
        ],
        [
          "R",
          "ST"
        ],
        [
          "a",
          "tion: "
        ],
        [
          "y",
          ", but "
        ],
        [
          "I'm sorr",
          "y, but "
        ],
        [
          "I can",
          "not "
        ],
        [
          "I'm sorry, but ",
          "I cannot "
        ],
        [
          "-",
          "F"
        ],
        [
          "-",
          "L"
        ],
        [
          "-",
          "NE"
        ],
        [
          "I",
          "RST"
        ],
        [
          "X",
          "T] "
        ],
        [
          "re",
          "pli"
        ],
        [
          "re",
          "ad the "
        ],
        [
          "es",
          "."
        ],
        [
          "] the ",
          "message "
        ],
        [
          "label",
          " "
        ],
        [
          "AS",
          "T] "
        ],
        [
          "messag",
          "e"
        ],
        [
          "-F",
          "IRST"
        ],
        [
          "-L",
          "AST] "
        ],
        [
          "-NE",
          "XT] "
        ],
        [
          "read the ",
          "message"
        ],
        [
          "] the message ",
          "arriv"
        ],
        [
          "-FIRST",
          "] the message arriv"
        ],
        [
          "N",
          "70"
        ],
        [
          "ma",
          "ke "
        ],
        [
          "for N1",
          "70"
        ],
        [
          "\n",
          "count: "
        ],
        [
          "v",
          "en"
        ],
        [
          "in",
          "si"
        ],
        [
          "con",
          "ven"
        ],
        [
          "it",
          "s "
        ],
        [
          "` and the second line must be `",
          "count: "
        ],
        [
          "s",
          "e: "
        ],
        [
          "pl",
          "y "
        ],
        [
          "wh",
          "ere"
        ],
        [
          "where",
          "?"
        ],
        [
          "ne",
          "ed"
        ],
        [
          "l",
          "ast "
        ],
        [
          "The ",
          "meeting "
        ],
        [
          "with these note",
          "s: "
        ],
        [
          "Thurs",
          "day."
        ],
        [
          "un",
          "c"
        ],
        [
          "\n",
          "ri"
        ],
        [
          "A",
          "R"
        ],
        [
          "D",
          "D"
        ],
        [
          "D",
          "] the "
        ],
        [
          "E",
          "N"
        ],
        [
          "L",
          "E] the "
        ],
        [
          "T",
          "] the "
        ],
        [
          "x",
          " was "
        ],
        [
          ", ",
          "it is "
        ],
        [
          "no ",
          "ex"
        ],
        [
          "MI",
          "DD"
        ],
        [
          "was ",
          "placed "
        ],
        [
          "was ",
          "seal"
        ],
        [
          "bo",
          "x was "
        ],
        [
          "gh",
          "t="
        ],
        [
          "open",
          "ed; [N110"
        ],
        [
          "note ",
          "was placed "
        ],
        [
          "parcel ",
          "was seal"
        ],
        [
          "ST",
          "AR"
        ],
        [
          "lef",
          "t="
        ],
        [
          "insi",
          "de"
        ],
        [
          "\nri",
          "ght="
        ],
        [
          "D] the ",
          "parcel was seal"
        ],
        [
          "EN",
          "D] the parcel was seal"
        ],
        [
          "LE] the ",
          "note was placed "
        ],
        [
          "T] the ",
          "box was "
        ],
        [
          "MIDD",
          "LE] the note was placed "
        ],
        [
          "STAR",
          "T] the box was "
        ],
        [
          "MIDDLE] the note was placed ",
          "inside"
        ],
        [
          "START] the box was ",
          "opened; [N110"
        ],
        [
          "P",
          "le"
        ],
        [
          "br",
          "ing the "
        ],
        [
          "Ple",
          "ase "
        ],
        [
          "sentenc",
          "es."
        ],
        [
          "two ",
          "sentences."
        ],
        [
          " is ",
          "inside "
        ],
        [
          "says, “",
          "I "
        ],
        [
          "ts ",
          "w"
        ],
        [
          "con",
          "fir"
        ],
        [
          "i",
          "ce "
        ],
        [
          "o",
          "k"
        ],
        [
          "o",
          "ice "
        ],
        [
          "for",
          "w"
        ],
        [
          "si",
          "on "
        ],
        [
          "will ",
          "br"
        ],
        [
          "our meeting ",
          "to "
        ],
        [
          "d",
          "en be"
        ],
        [
          "h",
          "in"
        ],
        [
          "h",
          "id"
        ],
        [
          "N1",
          "70"
        ],
        [
          "pro",
          "pos"
        ],
        [
          "in the ",
          "garden"
        ],
        [
          "clos",
          "ed c"
        ],
        [
          "produce ",
          "tomorrow"
        ],
        [
          "den be",
          "hin"
        ],
        [
          "hid",
          "den behin"
        ],
        [
          "closed c",
          "ard "
        ],
        [
          "0",
          "0"
        ],
        [
          "O",
          "] the "
        ],
        [
          "T",
          "W"
        ],
        [
          "h",
          "as "
        ],
        [
          "t",
          "; [N110"
        ],
        [
          "al",
          "ly "
        ],
        [
          "ent ",
          "out"
        ],
        [
          "TH",
          "RE"
        ],
        [
          "was ",
          "loc"
        ],
        [
          "or ",
          "lef"
        ],
        [
          "or ",
          "was loc"
        ],
        [
          "E] the ",
          "ligh"
        ],
        [
          "do",
          "or was loc"
        ],
        [
          "ONE] the ",
          "last "
        ],
        [
          "visit",
          "or lef"
        ],
        [
          "ts w",
          "ent out"
        ],
        [
          "O] the ",
          "door was loc"
        ],
        [
          "TW",
          "O] the door was loc"
        ],
        [
          "THRE",
          "E] the ligh"
        ],
        [
          "ONE] the last ",
          "visitor lef"
        ],
        [
          "TWO] the door was loc",
          "k"
        ],
        [
          "THREE] the ligh",
          "ts went out"
        ],
        [
          "ONE] the last visitor lef",
          "t; [N110"
        ],
        [
          ", ",
          "with "
        ],
        [
          "I'm sorry, but I cannot ",
          "provide the "
        ],
        [
          "A",
          " "
        ],
        [
          "s",
          ":"
        ],
        [
          "t",
          "ude "
        ],
        [
          " th",
          "ank "
        ],
        [
          "ti",
          "tude "
        ],
        [
          "label",
          "ed "
        ],
        [
          "with these note",
          "s:"
        ],
        [
          "gra",
          "titude "
        ],
        [
          "with these notes:",
          " thank "
        ],
        [
          "3",
          "9"
        ],
        [
          "e",
          "e"
        ],
        [
          ". ",
          "Your "
        ],
        [
          "d the ",
          "closed card "
        ],
        [
          "hidden behin",
          "d the closed card "
        ],
        [
          "hidden behind the closed card ",
          "labeled "
        ],
        [
          "C",
          "on"
        ],
        [
          "c",
          "um"
        ],
        [
          "par",
          "e "
        ],
        [
          "\n",
          "code: N19"
        ],
        [
          "a",
          "ir"
        ],
        [
          "th",
          "er "
        ],
        [
          "ch",
          "air"
        ],
        [
          "Follow the requested wording and format. I",
          "tem "
        ],
        [
          "` and the second line must be `",
          "code: N19"
        ],
        [
          ".\nReturn exactly two plain-text lines and no Markdown. The first line must be `",
          "item: "
        ],
        [
          "d",
          "raf"
        ],
        [
          "me",
          "m"
        ],
        [
          "random ",
          "cod"
        ],
        [
          "2",
          "5"
        ],
        [
          "reading are",
          "a "
        ],
        [
          "mov",
          "ed to "
        ],
        [
          "-",
          "D"
        ],
        [
          "-",
          "P"
        ],
        [
          "C",
          "T] "
        ],
        [
          "P",
          "] "
        ],
        [
          "s",
          "ation "
        ],
        [
          "te",
          "re"
        ],
        [
          "en",
          "tere"
        ],
        [
          "con",
          "ver"
        ],
        [
          "d the ",
          "room"
        ],
        [
          "do",
          "or"
        ],
        [
          "-A",
          "CT] "
        ],
        [
          "for N1",
          "6"
        ],
        [
          "RE",
          "P] "
        ],
        [
          "ONE] the ",
          "conver"
        ],
        [
          "opened the ",
          "door"
        ],
        [
          "-D",
          "ONE] the conver"
        ],
        [
          "-P",
          "REP] "
        ],
        [
          "sation ",
          "end"
        ],
        [
          "entere",
          "d the room"
        ],
        [
          "-DONE] the conver",
          "sation end"
        ],
        [
          "e ",
          "our meeting to "
        ],
        [
          ",\n\nI hope this message finds you well.\n\nI ",
          "wanted to "
        ],
        [
          "kind",
          "ly "
        ],
        [
          "propos",
          "e a "
        ],
        [
          "ing ",
          "to "
        ],
        [
          "in the ",
          "reading area"
        ],
        [
          "a",
          "it"
        ],
        [
          "i",
          "m"
        ],
        [
          "s",
          "t"
        ],
        [
          "w",
          "ait"
        ],
        [
          "or",
          "s "
        ],
        [
          "The ",
          "two "
        ],
        [
          "in the ",
          "east hall"
        ],
        [
          "visit",
          "ors "
        ],
        [
          " copi",
          "es"
        ],
        [
          "wait",
          "ing "
        ],
        [
          "The two ",
          "visitors "
        ],
        [
          "e",
          "w"
        ],
        [
          "s ",
          "my "
        ],
        [
          " th",
          "ank"
        ],
        [
          "you",
          "r "
        ],
        [
          "res",
          "s my "
        ],
        [
          "revi",
          "ew"
        ],
        [
          "exp",
          "ress my "
        ],
        [
          " ",
          "chair"
        ],
        [
          "N",
          "20"
        ],
        [
          ". ",
          "I "
        ],
        [
          "for",
          "e "
        ],
        [
          "tex",
          "t: "
        ],
        [
          "ver",
          "sion "
        ],
        [
          "N",
          "o"
        ],
        [
          "d",
          "at"
        ],
        [
          "No",
          "te"
        ],
        [
          "you",
          "'re "
        ],
        [
          "N1",
          "5"
        ],
        [
          "E",
          "very "
        ],
        [
          "d",
          "is"
        ],
        [
          "w",
          "ee"
        ],
        [
          "I ",
          "would like to "
        ],
        [
          "0",
          "7"
        ],
        [
          "next ",
          "wee"
        ],
        [
          "review",
          "ed "
        ],
        [
          "ing",
          " them "
        ],
        [
          "gard",
          "en "
        ],
        [
          "east hal",
          "l "
        ],
        [
          "propose a ",
          "meeting "
        ],
        [
          "y",
          "p"
        ],
        [
          "er",
          "v"
        ],
        [
          "front des",
          "k "
        ],
        [
          "a",
          "in "
        ],
        [
          "t",
          "yp"
        ],
        [
          "ag",
          "ain "
        ],
        [
          "once ",
          "again "
        ],
        [
          "3",
          "8"
        ],
        [
          "ti",
          "me"
        ],
        [
          "once again ",
          "for your "
        ],
        [
          "3",
          "6"
        ],
        [
          "4",
          "8"
        ],
        [
          "Use only the supplied material for i",
          "tem "
        ],
        [
          "5",
          "9"
        ],
        [
          "wh",
          "ich "
        ],
        [
          "co",
          "de "
        ],
        [
          "would ",
          "be "
        ],
        [
          "feel ",
          "b"
        ],
        [
          "help",
          "."
        ],
        [
          "5OMAR",
          "-"
        ],
        [
          "T",
          "i"
        ],
        [
          "a",
          "ppreci"
        ],
        [
          "be",
          "fore "
        ],
        [
          "th",
          "ank"
        ],
        [
          "in the ",
          "front desk"
        ],
        [
          "f",
          "u"
        ],
        [
          "y",
          " this "
        ],
        [
          "if",
          " the"
        ],
        [
          "ch",
          "oice "
        ],
        [
          "small ",
          "parcel"
        ],
        [
          "S",
          "ta"
        ],
        [
          "w",
          "ere "
        ],
        [
          "day",
          ". Include a greeting and closing; add no new facts."
        ],
        [
          "res",
          "erv"
        ],
        [
          "ma",
          "k"
        ],
        [
          " must belong ",
          "to NORU-N220"
        ],
        [
          ".\nReturn exactly two plain-text lines and no Markdown. The first line must be `",
          "name: "
        ],
        [
          "T",
          "o "
        ],
        [
          "sen",
          "d the "
        ],
        [
          "thing ",
          "el"
        ],
        [
          "5",
          ".\n"
        ],
        [
          " copi",
          "es "
        ],
        [
          "next wee",
          "k "
        ],
        [
          "propose a meeting ",
          "at "
        ],
        [
          "3",
          "7"
        ],
        [
          "on",
          " the "
        ],
        [
          "fe",
          "el"
        ],
        [
          "sta",
          "te"
        ],
        [
          "do",
          "cum"
        ],
        [
          " b",
          "elong "
        ],
        [
          "6",
          "7"
        ],
        [
          "e",
          "f"
        ],
        [
          "e",
          "m"
        ],
        [
          "will ",
          "be "
        ],
        [
          "w",
          "e "
        ],
        [
          "ay ",
          "to "
        ],
        [
          "ok",
          "ay to "
        ],
        [
          "will br",
          "ing them "
        ],
        [
          "th",
          "at "
        ],
        [
          "y ",
          "what "
        ],
        [
          "quiet room",
          " "
        ],
        [
          "6",
          "8"
        ],
        [
          "s ",
          "to "
        ],
        [
          "ab",
          "le"
        ],
        [
          "assistan",
          "ce "
        ],
        [
          "c",
          "us"
        ],
        [
          "s ",
          "and "
        ],
        [
          "on Tues",
          "day."
        ],
        [
          "reci",
          "p"
        ],
        [
          " ",
          "moved to "
        ],
        [
          "2",
          "8"
        ],
        [
          "a",
          "te"
        ],
        [
          "w",
          "or"
        ],
        [
          "1",
          "9"
        ],
        [
          "er",
          "r"
        ],
        [
          " must belong ",
          "to the "
        ],
        [
          "4",
          "3"
        ],
        [
          "arrang",
          "ed "
        ],
        [
          "dis",
          "cus"
        ],
        [
          "if",
          " this "
        ],
        [
          "Could you please specif",
          "y what "
        ],
        [
          "4",
          "7"
        ],
        [
          ".\n\nThank you ",
          "once again for your "
        ],
        [
          "ensu",
          "r"
        ],
        [
          "loc",
          "a"
        ],
        [
          "entered the room",
          "; [N110"
        ],
        [
          "e ",
          "and "
        ],
        [
          "ly ",
          "appreci"
        ],
        [
          "6",
          "9"
        ],
        [
          "provi",
          "d"
        ],
        [
          "i",
          "p"
        ],
        [
          " ",
          "by "
        ],
        [
          "6",
          "3"
        ],
        [
          "on Wednes",
          "day."
        ],
        [
          "on Fri",
          "day."
        ],
        [
          "A",
          "ppreci"
        ],
        [
          "h",
          "er "
        ],
        [
          "gre",
          "at"
        ],
        [
          "I'm sorry, but I cannot provide the ",
          "exact "
        ],
        [
          "te",
          "r "
        ],
        [
          "sup",
          "por"
        ],
        [
          ", and ",
          "I "
        ],
        [
          " chair",
          "s in"
        ],
        [
          "f",
          "f"
        ],
        [
          "P1A-1",
          "1"
        ],
        [
          "2",
          "9"
        ],
        [
          "o",
          "d"
        ],
        [
          "re",
          "as"
        ],
        [
          "reas",
          "on"
        ],
        [
          "2",
          "4"
        ],
        [
          "C",
          "h"
        ],
        [
          "i",
          "tem "
        ],
        [
          ". I",
          "t "
        ],
        [
          "detai",
          "l "
        ],
        [
          "writ",
          "ing to "
        ],
        [
          "am ",
          "writing to "
        ],
        [
          "gratitude ",
          "for the "
        ],
        [
          "Ch",
          "ang"
        ],
        [
          "1",
          "7"
        ],
        [
          "=",
          "help"
        ],
        [
          "e",
          "ak"
        ],
        [
          "er",
          "="
        ],
        [
          "et",
          "ter"
        ],
        [
          "for ",
          "her "
        ],
        [
          "; ",
          "reason"
        ],
        [
          "sp",
          "eak"
        ],
        [
          "Turn these supplied fields into one natural English sentence without adding information: ",
          "speak"
        ],
        [
          "Could you please specif",
          "y the "
        ],
        [
          "; action=",
          "thank"
        ],
        [
          "ed; ",
          "recip"
        ],
        [
          "ient",
          "="
        ],
        [
          "Request ",
          "for "
        ],
        [
          "for her ",
          "help."
        ],
        [
          "; reason",
          "=help"
        ],
        [
          "Turn these supplied fields into one natural English sentence without adding information: speak",
          "er="
        ],
        [
          "; action=thank",
          "ed; recip"
        ],
        [
          "; action=thanked; recip",
          "ient="
        ],
        [
          "5",
          "4"
        ],
        [
          "S",
          "DAY|"
        ],
        [
          "tion=",
          "the "
        ],
        [
          "objec",
          "t="
        ],
        [
          "fu",
          "l "
        ],
        [
          "loca",
          "tion=the "
        ],
        [
          "t ",
          "and "
        ],
        [
          "or",
          "="
        ],
        [
          "; ",
          "location=the "
        ],
        [
          "act",
          "or="
        ],
        [
          "plac",
          "ed; "
        ],
        [
          "Turn these supplied fields into one natural English sentence without adding information: ",
          "actor="
        ],
        [
          "; action=",
          "placed; "
        ],
        [
          "; action=placed; ",
          "object="
        ],
        [
          ", ",
          "it's "
        ],
        [
          "ta",
          "in"
        ],
        [
          " was ",
          "reviewed "
        ],
        [
          "4",
          "2"
        ],
        [
          "e ",
          "of "
        ],
        [
          "an",
          "t "
        ],
        [
          "re",
          "'s "
        ],
        [
          "ing",
          "s "
        ],
        [
          "ma",
          "t"
        ],
        [
          "5",
          "5"
        ],
        [
          "1",
          "8"
        ],
        [
          "5",
          "8"
        ],
        [
          "in",
          "c"
        ],
        [
          "on Mon",
          "day."
        ],
        [
          "g",
          "o"
        ],
        [
          "under",
          "st"
        ],
        [
          "day ",
          "at "
        ],
        [
          "c",
          "ould "
        ],
        [
          "h",
          "ave "
        ],
        [
          "2",
          "2"
        ],
        [
          "suppor",
          "t "
        ],
        [
          "blue fold",
          "er"
        ],
        [
          "draf",
          "t"
        ],
        [
          "3",
          "4"
        ],
        [
          "c",
          "as"
        ],
        [
          "d",
          "ec"
        ],
        [
          "t ",
          "the "
        ],
        [
          "re's ",
          "an"
        ],
        [
          "go",
          "t "
        ],
        [
          "t",
          "u"
        ],
        [
          "green noteboo",
          "k"
        ],
        [
          "device ",
          "N70"
        ],
        [
          "great",
          "ly appreci"
        ],
        [
          "3",
          "2"
        ],
        [
          "6",
          "5"
        ],
        [
          "i",
          "th"
        ],
        [
          "s ",
          "at "
        ],
        [
          " th",
          "ings "
        ],
        [
          "is ",
          "hidden behind the closed card labeled "
        ],
        [
          "pro",
          "v"
        ],
        [
          "What exact ",
          "number "
        ],
        [
          "forw",
          "ard "
        ],
        [
          "What exact number ",
          "is hidden behind the closed card labeled "
        ],
        [
          "4",
          "0"
        ],
        [
          "se",
          "e"
        ],
        [
          "mor",
          "e "
        ],
        [
          "th",
          "e"
        ],
        [
          "res",
          "chedul"
        ],
        [
          "about ",
          "tomorrow"
        ],
        [
          "5",
          "2"
        ],
        [
          "=",
          "ready"
        ],
        [
          "=",
          "N230"
        ],
        [
          "; ",
          "day"
        ],
        [
          "; ",
          "time"
        ],
        [
          "; ",
          "state"
        ],
        [
          "item",
          "=N230"
        ],
        [
          "Turn these supplied fields into one natural English sentence without adding information: ",
          "item=N230"
        ],
        [
          " copies ",
          "to the "
        ],
        [
          " things ",
          "for "
        ],
        [
          "forward ",
          "to "
        ],
        [
          "=ready",
          "; time"
        ],
        [
          "; day",
          "="
        ],
        [
          "; state",
          "=ready; time"
        ],
        [
          "; state=ready; time",
          "="
        ],
        [
          "ted ",
          "by "
        ],
        [
          " chairs in",
          "to the "
        ],
        [
          "2",
          "6"
        ],
        [
          "i",
          "en"
        ],
        [
          "or",
          "rec"
        ],
        [
          "to ",
          "bring the "
        ],
        [
          ". I",
          "f "
        ],
        [
          ".\n",
          "\n\n"
        ],
        [
          "meeting ",
          "for "
        ],
        [
          "are",
          "d "
        ],
        [
          "class ",
          "NORU-N220"
        ],
        [
          "docum",
          "ent "
        ],
        [
          "wor",
          "ks "
        ],
        [
          " must belong to the ",
          "class NORU-N220"
        ],
        [
          "2",
          "3"
        ],
        [
          "l",
          "et "
        ],
        [
          "as",
          "ed "
        ],
        [
          "Re",
          "vi"
        ],
        [
          "ten",
          "tion "
        ],
        [
          "at",
          "tention "
        ],
        [
          "sp",
          "on"
        ],
        [
          "tr",
          "u"
        ],
        [
          "the",
          "m "
        ],
        [
          "let ",
          "me "
        ],
        [
          "Revi",
          "ew "
        ],
        [
          ".",
          "\""
        ],
        [
          "s ",
          "the "
        ],
        [
          "The ",
          "item "
        ],
        [
          "The item ",
          "N230"
        ],
        [
          "c",
          "ould you please "
        ],
        [
          "on ",
          "Thursday."
        ],
        [
          "e the ",
          "meeting for "
        ],
        [
          "time ",
          "works "
        ],
        [
          "Fri",
          "day"
        ],
        [
          "collec",
          "t "
        ],
        [
          "t b",
          "y "
        ],
        [
          "al",
          "l "
        ],
        [
          "par",
          "tic"
        ],
        [
          "mov",
          "ed "
        ],
        [
          "ready ",
          "for "
        ],
        [
          "4",
          "9"
        ],
        [
          "m",
          "om"
        ],
        [
          "s",
          "om"
        ],
        [
          "it",
          "y"
        ],
        [
          "has ",
          "the "
        ],
        [
          "ate",
          "d"
        ],
        [
          "spon",
          "se "
        ],
        [
          "g",
          "rou"
        ],
        [
          "u",
          "d"
        ],
        [
          "t re",
          "ac"
        ],
        [
          "grou",
          "p"
        ],
        [
          " ",
          "will "
        ],
        [
          " ",
          "produce tomorrow"
        ],
        [
          "H",
          "el"
        ],
        [
          "m",
          "ent"
        ],
        [
          "arriv",
          "ed "
        ],
        [
          "random ",
          "code "
        ],
        [
          "take ",
          "a "
        ],
        [
          "What exact ",
          "random code "
        ],
        [
          "random cod",
          "e that "
        ],
        [
          " produce tomorrow",
          "? Say that the answer cannot be known from the information given; do not invent an answer."
        ],
        [
          "What exact random code ",
          "will "
        ],
        [
          "4",
          "4"
        ],
        [
          "ic",
          "e"
        ],
        [
          "mom",
          "ent "
        ],
        [
          "take a ",
          "moment "
        ],
        [
          "2",
          "7"
        ],
        [
          "3",
          "3"
        ],
        [
          "20",
          "MIRA"
        ],
        [
          "The ",
          "LUMA-N220"
        ],
        [
          "in ",
          "LUMA-N220"
        ],
        [
          ", and ",
          "VERI-N220"
        ],
        [
          "from ",
          "it "
        ],
        [
          ".\nReason only from these nonce statements: ",
          "The LUMA-N220"
        ],
        [
          " is inside ",
          "VERI-N220"
        ],
        [
          "im",
          "prov"
        ],
        [
          "reserv",
          "ed the "
        ],
        [
          "em",
          "ent "
        ],
        [
          "group",
          " is inside VERI-N220"
        ],
        [
          "b",
          "etter"
        ],
        [
          "kno",
          "w "
        ],
        [
          "be",
          "en "
        ],
        [
          "You",
          " "
        ],
        [
          "greatly appreci",
          "ated"
        ],
        [
          "let me ",
          "know "
        ],
        [
          "6",
          "6"
        ],
        [
          "ag",
          "re"
        ],
        [
          "mus",
          "t reac"
        ],
        [
          "sh",
          "ared "
        ],
        [
          "will ",
          "collect "
        ],
        [
          "Please ",
          "let me know "
        ],
        [
          "must reac",
          "h "
        ],
        [
          "shared ",
          "at "
        ],
        [
          "1",
          "3"
        ],
        [
          "v",
          "alu"
        ],
        [
          "pl",
          "an"
        ],
        [
          "The ",
          "draft "
        ],
        [
          "arranged ",
          "them "
        ],
        [
          "arranged them ",
          "before "
        ],
        [
          "w",
          ".”"
        ],
        [
          "er",
          "ation "
        ],
        [
          ", ",
          "send the "
        ],
        [
          "no",
          "w.”"
        ],
        [
          "pro",
          "jec"
        ],
        [
          "specif",
          "ic"
        ],
        [
          "new ",
          "review "
        ],
        [
          " thank",
          "ed "
        ],
        [
          "new review ",
          "day "
        ],
        [
          " ",
          "i"
        ],
        [
          "-",
          "time "
        ],
        [
          "5",
          "-0"
        ],
        [
          "C",
          "op"
        ],
        [
          "P",
          "re"
        ],
        [
          "u",
          "pp"
        ],
        [
          "e ",
          "with "
        ],
        [
          "er",
          "cas"
        ],
        [
          ". ",
          "Fix"
        ],
        [
          "for",
          "got "
        ],
        [
          "no",
          "thing el"
        ],
        [
          "us",
          "ing "
        ],
        [
          "requested ",
          "a quiet meeting"
        ],
        [
          "and",
          "-time "
        ],
        [
          "exact ",
          "upp"
        ],
        [
          ".\nRewrite this as one professional, courteous sentence: “",
          "You "
        ],
        [
          "ask",
          "ed for "
        ],
        [
          "e-",
          "and-time "
        ],
        [
          "a quiet meeting",
          ". "
        ],
        [
          "you're ",
          "feel"
        ],
        [
          "y this ",
          "exact upp"
        ],
        [
          "valu",
          "e with "
        ],
        [
          " i",
          "t by "
        ],
        [
          "Cop",
          "y this exact upp"
        ],
        [
          "ercas",
          "e-and-time "
        ],
        [
          ". Fix",
          " it by "
        ],
        [
          "forgot ",
          "N18"
        ],
        [
          "nothing el",
          "se: "
        ],
        [
          ".\nRewrite this as one professional, courteous sentence: “You ",
          "forgot N18"
        ],
        [
          "asked for ",
          "a quiet meeting. "
        ],
        [
          "value with ",
          "nothing else: "
        ],
        [
          "Copy this exact upp",
          "ercase-and-time "
        ],
        [
          "Copy this exact uppercase-and-time ",
          "value with nothing else: "
        ],
        [
          " ",
          "one "
        ],
        [
          "C",
          "orrec"
        ],
        [
          "k",
          " th"
        ],
        [
          "p",
          "unc"
        ],
        [
          "s",
          "o"
        ],
        [
          "s",
          "inc"
        ],
        [
          "t",
          "urn"
        ],
        [
          "th",
          "rough the "
        ],
        [
          "s ",
          "and no "
        ],
        [
          "re",
          "turn"
        ],
        [
          "is ",
          "a "
        ],
        [
          "and ",
          "return"
        ],
        [
          "with",
          " exact"
        ],
        [
          "ly",
          " these "
        ],
        [
          "only",
          ": "
        ],
        [
          "sentence ",
          "only: "
        ],
        [
          ".\nRe",
          "ply "
        ],
        [
          "or ",
          "and return"
        ],
        [
          "word",
          "s and no "
        ],
        [
          "ks ",
          "through the "
        ],
        [
          "wal",
          "k th"
        ],
        [
          "wal",
          "ks through the "
        ],
        [
          "ation: ",
          "N130"
        ],
        [
          "with these notes: ",
          "ask "
        ],
        [
          "in the east hall",
          "."
        ],
        [
          "err",
          "or and return"
        ],
        [
          "e and ",
          "time "
        ],
        [
          "t the ",
          "agre"
        ],
        [
          "tu",
          "ation: N130"
        ],
        [
          "ement ",
          "error and return"
        ],
        [
          " one ",
          "sentence only: "
        ],
        [
          "Correc",
          "t the agre"
        ],
        [
          "punc",
          "tuation: N130"
        ],
        [
          "sinc",
          "ere "
        ],
        [
          "with exact",
          "ly these "
        ],
        [
          ".\nReply ",
          "with exactly these "
        ],
        [
          "words and no ",
          "punctuation: N130"
        ],
        [
          "walk th",
          "rough the "
        ],
        [
          "ement error and return",
          " one sentence only: "
        ],
        [
          "Correct the agre",
          "ement error and return one sentence only: "
        ],
        [
          ".\nReply with exactly these ",
          "words and no punctuation: N130"
        ],
        [
          "5",
          "3"
        ],
        [
          "g",
          "in"
        ],
        [
          "wh",
          "at"
        ],
        [
          "in the garden",
          "."
        ],
        [
          "5",
          "6"
        ],
        [
          "5",
          "7"
        ],
        [
          "f",
          "ur"
        ],
        [
          "P1S-ABS",
          "-0"
        ],
        [
          "Appreci",
          "ation "
        ],
        [
          "gin",
          "s at "
        ],
        [
          "g",
          "en"
        ],
        [
          "The request is underspecified: “",
          "Pre"
        ],
        [
          "confir",
          "m"
        ],
        [
          "in the reading area",
          "."
        ],
        [
          "ensur",
          "e that "
        ],
        [
          "The request is underspecified: “Pre",
          "pare "
        ],
        [
          "0",
          "-0"
        ],
        [
          "c",
          "c"
        ],
        [
          "e",
          "."
        ],
        [
          "l",
          "e "
        ],
        [
          "o",
          "k "
        ],
        [
          "ma",
          "de "
        ],
        [
          "in ",
          "no "
        ],
        [
          "45",
          "OMAR"
        ],
        [
          "gra",
          "m"
        ],
        [
          "thing ",
          "is "
        ],
        [
          "read the message",
          "; [N110"
        ],
        [
          "A",
          "cc"
        ],
        [
          "—",
          "“"
        ],
        [
          "—",
          "wh"
        ],
        [
          "o ",
          "will meet "
        ],
        [
          "ing ",
          "to this "
        ],
        [
          "om",
          " and "
        ],
        [
          "ti",
          "m"
        ],
        [
          "ed",
          "?"
        ],
        [
          "ord",
          "ing to this "
        ],
        [
          ".”",
          "—wh"
        ],
        [
          "e only",
          "—“"
        ],
        [
          "wh",
          "om and "
        ],
        [
          "context",
          "."
        ],
        [
          "help",
          "ing "
        ],
        [
          "messag",
          "e only—“"
        ],
        [
          ".\n\nThank you ",
          "for your "
        ],
        [
          "repli",
          "ed; [N110"
        ],
        [
          "repli",
          "ed."
        ],
        [
          "-FIRST] the message arriv",
          "ed."
        ],
        [
          "som",
          "e"
        ],
        [
          "will collect ",
          "it "
        ],
        [
          "Please let me know ",
          "if this "
        ],
        [
          "Acc",
          "ording to this "
        ],
        [
          "o will meet ",
          "whom and "
        ],
        [
          ".”—wh",
          "o will meet whom and "
        ],
        [
          "According to this ",
          "message only—“"
        ],
        [
          ".”—who will meet whom and ",
          "where?"
        ],
        [
          "g",
          "ment"
        ],
        [
          "j",
          "ud"
        ],
        [
          "k",
          "es"
        ],
        [
          "n",
          "on"
        ],
        [
          "re",
          "sponse "
        ],
        [
          "a ",
          "mis"
        ],
        [
          "and ",
          "feel b"
        ],
        [
          ", ",
          "non"
        ],
        [
          "ed",
          ".\n[N110"
        ],
        [
          "e th",
          "an "
        ],
        [
          "t b",
          "e"
        ],
        [
          "ad",
          ".” "
        ],
        [
          "al ",
          "response "
        ],
        [
          "ta",
          "kes"
        ],
        [
          "le",
          "ar"
        ],
        [
          "giv",
          "e "
        ],
        [
          "Giv",
          "e a "
        ],
        [
          "mis",
          "takes"
        ],
        [
          "kind",
          ", non"
        ],
        [
          "take ",
          "and feel b"
        ],
        [
          "mor",
          "e than "
        ],
        [
          "-FIRST] the message arriv",
          "ed.\n[N110"
        ],
        [
          "says, “I ",
          "made "
        ],
        [
          "time works ",
          "for you"
        ],
        [
          "gen",
          "eration "
        ],
        [
          "in no ",
          "more than "
        ],
        [
          "gment",
          "al response "
        ],
        [
          "jud",
          "gmental response "
        ],
        [
          "a mis",
          "take and feel b"
        ],
        [
          "ad.” ",
          "Give a "
        ],
        [
          "kind, non",
          "judgmental response "
        ],
        [
          "says, “I made ",
          "a mistake and feel b"
        ],
        [
          "in no more than ",
          "two sentences."
        ],
        [
          "ad.” Give a ",
          "kind, nonjudgmental response "
        ],
        [
          "says, “I made a mistake and feel b",
          "ad.” Give a kind, nonjudgmental response "
        ],
        [
          "says, “I made a mistake and feel bad.” Give a kind, nonjudgmental response ",
          "in no more than two sentences."
        ],
        [
          "M",
          "ak"
        ],
        [
          "a ",
          "f"
        ],
        [
          "The request is underspecified: “",
          "Mak"
        ],
        [
          "up",
          "dat"
        ],
        [
          "in the quiet room",
          "."
        ],
        [
          "forward to ",
          "our "
        ],
        [
          "The request is underspecified: “Mak",
          "e the "
        ],
        [
          "6",
          "0"
        ],
        [
          "6",
          "1"
        ],
        [
          "p",
          "ec"
        ],
        [
          "t",
          "e the "
        ],
        [
          "“",
          "The "
        ],
        [
          "is ",
          "N120"
        ],
        [
          "as",
          "pec"
        ],
        [
          "con",
          "t"
        ],
        [
          "lis",
          "ten"
        ],
        [
          "only",
          " that "
        ],
        [
          ". I",
          "t be"
        ],
        [
          ".” ",
          "Sta"
        ],
        [
          "Combine the supplied statements into one concise, fluent sentence without dropping any detail: ",
          "The meeting "
        ],
        [
          "objec",
          "t and "
        ],
        [
          "device ",
          "N210"
        ],
        [
          "label ",
          "on the "
        ],
        [
          "label ",
          "using "
        ],
        [
          "its ",
          "label using "
        ],
        [
          "Con",
          "text: "
        ],
        [
          "fur",
          "ther "
        ],
        [
          "te the ",
          "object and "
        ],
        [
          "“The ",
          "label on the "
        ],
        [
          "only that ",
          "context."
        ],
        [
          ". It be",
          "gins at "
        ],
        [
          ".” Sta",
          "te the object and "
        ],
        [
          "Combine the supplied statements into one concise, fluent sentence without dropping any detail: The meeting ",
          "is "
        ],
        [
          "its label using ",
          "only that context."
        ],
        [
          "Context: ",
          "“The label on the "
        ],
        [
          ".” State the object and ",
          "its label using only that context."
        ],
        [
          "\n",
          "left="
        ],
        [
          "3",
          "1"
        ],
        [
          "6",
          "2"
        ],
        [
          "6",
          "-0"
        ],
        [
          ":",
          "\nleft="
        ],
        [
          " the ",
          "sentence "
        ],
        [
          "es",
          ", with "
        ],
        [
          "o ",
          "placed "
        ],
        [
          "a ",
          "text"
        ],
        [
          "and ",
          "b"
        ],
        [
          "and ",
          "give "
        ],
        [
          "to ",
          "answer. "
        ],
        [
          " this ",
          "note "
        ],
        [
          "lin",
          "es, with "
        ],
        [
          "was ",
          "ready "
        ],
        [
          ".” ",
          "Wh"
        ],
        [
          " is ",
          "LUMA-N220"
        ],
        [
          "Use only",
          " this note "
        ],
        [
          ", and ",
          "where?"
        ],
        [
          ".\nReturn exactly two ",
          "lines, with "
        ],
        [
          "P1A-10",
          "-0"
        ],
        [
          "it is ",
          "VERI-N220"
        ],
        [
          "tr",
          "a text"
        ],
        [
          "ation",
          ".\n\nBest regards,\n\n"
        ],
        [
          "Fix",
          " the sentence "
        ],
        [
          ", it is ",
          "VERI-N220"
        ],
        [
          ", it is ",
          "NORU-N220"
        ],
        [
          "no ex",
          "plan"
        ],
        [
          "no ex",
          "tra text"
        ],
        [
          "END] the parcel was seal",
          "ed; [N110"
        ],
        [
          "END] the parcel was seal",
          "ed."
        ],
        [
          "MIDDLE] the note was placed inside",
          "."
        ],
        [
          "MIDDLE] the note was placed inside",
          "; [N110"
        ],
        [
          "express my ",
          "sincere "
        ],
        [
          "Note",
          ": “"
        ],
        [
          "were ",
          "ready "
        ],
        [
          "ien",
          "ce"
        ],
        [
          ". If ",
          "it is VERI-N220"
        ],
        [
          "attention ",
          "to this "
        ],
        [
          "what",
          ", and where?"
        ],
        [
          "thing is ",
          "LUMA-N220"
        ],
        [
          "some",
          "thing is LUMA-N220"
        ],
        [
          "o placed ",
          "what, and where?"
        ],
        [
          "and give ",
          "no explan"
        ],
        [
          "to answer. ",
          "Note: “"
        ],
        [
          ".” Wh",
          "o placed what, and where?"
        ],
        [
          "Use only this note ",
          "to answer. Note: “"
        ],
        [
          ".\nReturn exactly two lines, with ",
          "no extra text"
        ],
        [
          "Fix the sentence ",
          "and give no explan"
        ],
        [
          ".\nReturn exactly two lines, with no extra text",
          ":\nleft="
        ],
        [
          "Fix the sentence and give no explan",
          "ation: "
        ],
        [
          " ",
          "in the "
        ],
        [
          "H",
          "i"
        ],
        [
          "I",
          "’"
        ],
        [
          "O",
          "ff"
        ],
        [
          "on",
          "e-"
        ],
        [
          ", ",
          "I’"
        ],
        [
          "on ",
          "Thursday"
        ],
        [
          "to ",
          "be "
        ],
        [
          "ri",
          "end"
        ],
        [
          "ly ",
          "one-"
        ],
        [
          "er ",
          "a f"
        ],
        [
          "sentence ",
          "welcom"
        ],
        [
          ".” ",
          "Off"
        ],
        [
          "new ",
          "partic"
        ],
        [
          "Thank you ",
          "for your "
        ],
        [
          "says, “",
          "Hi"
        ],
        [
          "e to ",
          "our "
        ],
        [
          "A ",
          "new partic"
        ],
        [
          "ip",
          "ant "
        ],
        [
          ", I’",
          "m "
        ],
        [
          "riend",
          "ly one-"
        ],
        [
          "er a f",
          "riendly one-"
        ],
        [
          "sentence welcom",
          "e."
        ],
        [
          ".” Off",
          "er a friendly one-"
        ],
        [
          "says, “Hi",
          ", I’m "
        ],
        [
          "A new partic",
          "ipant "
        ],
        [
          ".” Offer a friendly one-",
          "sentence welcome."
        ],
        [
          "A new participant ",
          "says, “Hi, I’m "
        ],
        [
          "4",
          "1"
        ],
        [
          "8",
          "-0"
        ],
        [
          "I",
          "f "
        ],
        [
          "M",
          "ov"
        ],
        [
          "is ",
          "need"
        ],
        [
          ".\nReason only from these nonce statements: ",
          "If "
        ],
        [
          ".\nRewrite this as one professional, courteous sentence: “",
          "Mov"
        ],
        [
          "inv",
          "alu"
        ],
        [
          " copies",
          ". "
        ],
        [
          ".\nReason only from these nonce statements: If ",
          "something is LUMA-N220"
        ],
        [
          ".\nRewrite this as one professional, courteous sentence: “Mov",
          "e our meeting to "
        ],
        [
          "if",
          " "
        ],
        [
          "Mon",
          "day"
        ],
        [
          "Tues",
          "day"
        ],
        [
          "TWO] the door was lock",
          "ed; [N110"
        ],
        [
          "TWO] the door was lock",
          "ed."
        ],
        [
          "THREE] the lights went out",
          "."
        ],
        [
          "THREE] the lights went out",
          "; [N110"
        ],
        [
          "A",
          "ll "
        ],
        [
          ", ",
          "I would like to "
        ],
        [
          "to ",
          "VERI-N220"
        ],
        [
          "for ",
          "helping "
        ],
        [
          "; ",
          "PAVO-N220"
        ],
        [
          "; ",
          "all "
        ],
        [
          "elong",
          "s to "
        ],
        [
          "comm",
          "un"
        ],
        [
          "I h",
          "ave "
        ],
        [
          "Wednes",
          "day"
        ],
        [
          "The request is underspecified: “",
          "Chang"
        ],
        [
          ".\nReason only from these nonce statements: ",
          "All "
        ],
        [
          "e to our ",
          "commun"
        ],
        [
          "; all ",
          "VERI-N220"
        ],
        [
          "elongs to ",
          "LUMA-N220"
        ],
        [
          "The request is underspecified: “Chang",
          "e the meeting for "
        ],
        [
          ".\nReason only from these nonce statements: All ",
          "LUMA-N220"
        ],
        [
          "e to our commun",
          "ity"
        ],
        [
          "1",
          "2"
        ],
        [
          "1",
          "-0"
        ],
        [
          "6",
          "4"
        ],
        [
          "m",
          "ly "
        ],
        [
          "w",
          "ar"
        ],
        [
          "es",
          "t "
        ],
        [
          "ing",
          ".” "
        ],
        [
          "for ",
          "listen"
        ],
        [
          "Re",
          "ply "
        ],
        [
          "ri",
          "ef"
        ],
        [
          "ly",
          "."
        ],
        [
          "30",
          "MIRA"
        ],
        [
          ".” ",
          "Reply "
        ],
        [
          "or ",
          "two sentences."
        ],
        [
          "lo",
          "ok "
        ],
        [
          "Respond ",
          "natur"
        ],
        [
          "in one ",
          "or two sentences."
        ],
        [
          "Thank you ",
          "for listen"
        ],
        [
          "says, “",
          "Thank you for listen"
        ],
        [
          "make ",
          "next week "
        ],
        [
          "says, “I ",
          "feel "
        ],
        [
          "ally ",
          "and b"
        ],
        [
          "about tomorrow",
          ".” Reply "
        ],
        [
          "mly ",
          "in one or two sentences."
        ],
        [
          "war",
          "mly in one or two sentences."
        ],
        [
          "ing.” ",
          "Respond natur"
        ],
        [
          "rief",
          "ly."
        ],
        [
          "says, “Thank you for listen",
          "ing.” Respond natur"
        ],
        [
          "ally and b",
          "riefly."
        ],
        [
          "about tomorrow.” Reply ",
          "warmly in one or two sentences."
        ],
        [
          "says, “Thank you for listening.” Respond natur",
          "ally and briefly."
        ],
        [
          "b",
          " in the "
        ],
        [
          "p",
          "ast "
        ],
        [
          "and ",
          "ask "
        ],
        [
          "to ",
          "confirm"
        ],
        [
          "ten",
          "se: "
        ],
        [
          "day",
          ", and "
        ],
        [
          "sentence ",
          "with the "
        ],
        [
          "e the ",
          "sentence with the "
        ],
        [
          "ver",
          "b in the "
        ],
        [
          "open",
          "s the "
        ],
        [
          ".\nRewrit",
          "e the sentence with the "
        ],
        [
          "typ",
          "e of "
        ],
        [
          "past ",
          "tense: "
        ],
        [
          "verb in the ",
          "past tense: "
        ],
        [
          ".\nRewrite the sentence with the ",
          "verb in the past tense: "
        ],
        [
          "?",
          "\n\n"
        ],
        [
          "s",
          "ed "
        ],
        [
          "te",
          "ll "
        ],
        [
          "The ",
          "review "
        ],
        [
          " and ",
          "ask"
        ],
        [
          " them ",
          "to confirm"
        ],
        [
          "with these notes: ",
          "tell "
        ],
        [
          " and ask",
          " them to confirm"
        ],
        [
          " and ask them to confirm",
          ". Include a greeting and closing; add no new facts."
        ],
        [
          "4",
          "6"
        ],
        [
          "en",
          "d "
        ],
        [
          "co",
          "de"
        ],
        [
          "Mon",
          "day."
        ],
        [
          "unc",
          "er"
        ],
        [
          "7",
          "-0"
        ],
        [
          "9",
          "-0"
        ],
        [
          "s",
          "el"
        ],
        [
          "Th",
          "ere "
        ],
        [
          "ol",
          "lab"
        ],
        [
          ". The ",
          "new review day "
        ],
        [
          "ay ",
          "for N16"
        ],
        [
          "Combine the supplied statements into one concise, fluent sentence without dropping any detail: ",
          "There "
        ],
        [
          "You",
          "'re "
        ],
        [
          "del",
          "ay"
        ],
        [
          "del",
          "ay for N16"
        ],
        [
          "opened the door",
          "."
        ],
        [
          "-DONE] the conversation end",
          "ed; [N110"
        ],
        [
          "-DONE] the conversation end",
          "ed."
        ],
        [
          "is a ",
          "delay for N16"
        ],
        [
          "The review ",
          "for N16"
        ],
        [
          "ollab",
          "or"
        ],
        [
          ". The new review day ",
          "is "
        ],
        [
          "Combine the supplied statements into one concise, fluent sentence without dropping any detail: There ",
          "is a delay for N16"
        ],
        [
          "4",
          "-0"
        ],
        [
          "Subject: ",
          "Appreciation "
        ],
        [
          "confir",
          "m "
        ],
        [
          "underst",
          "and"
        ],
        [
          "E",
          "di"
        ],
        [
          "t ",
          "only "
        ],
        [
          "is ",
          "waiting "
        ],
        [
          ": ",
          "The two visitors "
        ],
        [
          "ma",
          "tic"
        ],
        [
          "e this ",
          "gram"
        ],
        [
          "al",
          ": The two visitors "
        ],
        [
          "ed to ",
          "mak"
        ],
        [
          "are ",
          "waiting "
        ],
        [
          "what ",
          "is need"
        ],
        [
          "The two visitors ",
          "are waiting "
        ],
        [
          "able",
          ", and I "
        ],
        [
          "invalu",
          "able, and I "
        ],
        [
          "Edi",
          "t only "
        ],
        [
          "matic",
          "al: The two visitors "
        ],
        [
          "e this gram",
          "matical: The two visitors "
        ],
        [
          "ed to mak",
          "e this grammatical: The two visitors "
        ],
        [
          "what is need",
          "ed to make this grammatical: The two visitors "
        ],
        [
          "Edit only ",
          "what is needed to make this grammatical: The two visitors "
        ],
        [
          "Edit only what is needed to make this grammatical: The two visitors ",
          "is waiting "
        ],
        [
          " ",
          "so"
        ],
        [
          "C",
          "ould "
        ],
        [
          "S",
          "end "
        ],
        [
          "on",
          ".” Ask one concise clarification question instead of assuming missing details."
        ],
        [
          "s ",
          "or "
        ],
        [
          "y ",
          "to "
        ],
        [
          "cannot be known from the information given",
          "."
        ],
        [
          "The request is underspecified: “",
          "Send "
        ],
        [
          "take a moment ",
          "to "
        ],
        [
          " so",
          "on.” Ask one concise clarification question instead of assuming missing details."
        ],
        [
          "The request is underspecified: “Send ",
          "N20"
        ],
        [
          "\n",
          "D"
        ],
        [
          "\n",
          "Ti"
        ],
        [
          "5",
          "1"
        ],
        [
          "C",
          "od"
        ],
        [
          "m",
          "ed?"
        ],
        [
          "“",
          "Review "
        ],
        [
          "on",
          "e: "
        ],
        [
          "o ",
          "and "
        ],
        [
          ", ",
          "which "
        ],
        [
          ", ",
          "day, and "
        ],
        [
          "ma",
          "tion "
        ],
        [
          "ay",
          ": "
        ],
        [
          "al",
          "one: "
        ],
        [
          "answer ",
          "from it "
        ],
        [
          ".\nRe",
          "ad the supplied "
        ],
        [
          ".” ",
          "What "
        ],
        [
          "co",
          "op"
        ],
        [
          "li",
          "est "
        ],
        [
          "fir",
          "mation "
        ],
        [
          "time ",
          "are "
        ],
        [
          "na",
          "med?"
        ],
        [
          "e: N1",
          "20"
        ],
        [
          "ear",
          "liest "
        ],
        [
          "Con",
          "firmation "
        ],
        [
          "mem",
          "o and "
        ],
        [
          "your ",
          "earliest "
        ],
        [
          "provid",
          "ed "
        ],
        [
          "code",
          ", day, and "
        ],
        [
          "\nD",
          "ay: "
        ],
        [
          "\nTi",
          "me: "
        ],
        [
          "Cod",
          "e: N120"
        ],
        [
          "“Review ",
          "N120"
        ],
        [
          "alone: ",
          "“Review N120"
        ],
        [
          "answer from it ",
          "alone: “Review N120"
        ],
        [
          ".\nRead the supplied ",
          "memo and "
        ],
        [
          ".” What ",
          "code, day, and "
        ],
        [
          "time are ",
          "named?"
        ],
        [
          "your earliest ",
          "conven"
        ],
        [
          ".\nRead the supplied memo and ",
          "answer from it alone: “Review N120"
        ],
        [
          ".” What code, day, and ",
          "time are named?"
        ],
        [
          "d",
          "en"
        ],
        [
          "for",
          "m "
        ],
        [
          ", with ",
          "a "
        ],
        [
          "your earliest conven",
          "ience"
        ],
        [
          ". ",
          "A "
        ],
        [
          ". ",
          "Every "
        ],
        [
          "con",
          "den"
        ],
        [
          "Draft ",
          "N15"
        ],
        [
          "ste",
          "p"
        ],
        [
          "shor",
          "ter "
        ],
        [
          "Summarize this supplied text in one clear sentence: ",
          "Draft N15"
        ],
        [
          " is a ",
          "NORU-N220"
        ],
        [
          "make ",
          "mistakes"
        ],
        [
          "version ",
          "will be "
        ],
        [
          "version ",
          "to be "
        ],
        [
          "sed ",
          "version to be "
        ],
        [
          "take a moment to ",
          "express my sincere "
        ],
        [
          ", with a ",
          "conden"
        ],
        [
          ". A ",
          "shorter "
        ],
        [
          "version will be ",
          "shared at "
        ],
        [
          ", with a conden",
          "sed version to be "
        ],
        [
          ". A shorter ",
          "version will be shared at "
        ],
        [
          "com",
          "ing "
        ],
        [
          " is a ",
          "VERI-N220"
        ],
        [
          " is a ",
          "LUMA-N220"
        ],
        [
          "look ",
          "forward to our "
        ],
        [
          "sel",
          "f"
        ],
        [
          ". Every ",
          "VERI-N220"
        ],
        [
          " ",
          "group is inside VERI-N220"
        ],
        [
          "p",
          "ut "
        ],
        [
          "y ",
          "have "
        ],
        [
          ", ",
          "could you please "
        ],
        [
          "ed",
          "? Say that the answer cannot be known from the information given; do not invent an answer."
        ],
        [
          " is ",
          "in LUMA-N220"
        ],
        [
          "not ",
          "dec"
        ],
        [
          ". C",
          "ould you please "
        ],
        [
          "70",
          "MIRA"
        ],
        [
          "Wh",
          "ich "
        ],
        [
          ".\nReason only from these nonce statements: ",
          "Every "
        ],
        [
          "id",
          "ed? Say that the answer cannot be known from the information given; do not invent an answer."
        ],
        [
          "conven",
          "ient"
        ],
        [
          " is inside ",
          "NORU-N220"
        ],
        [
          "if the",
          "y have "
        ],
        [
          "choice ",
          "will "
        ],
        [
          "reschedul",
          "e our meeting to "
        ],
        [
          "make next week ",
          "if they have "
        ],
        [
          "Could ",
          "we "
        ],
        [
          "not dec",
          "ided? Say that the answer cannot be known from the information given; do not invent an answer."
        ],
        [
          "Which ",
          "choice will "
        ],
        [
          ".\nReason only from these nonce statements: Every ",
          "LUMA-N220"
        ],
        [
          "make next week if they have ",
          "not decided? Say that the answer cannot be known from the information given; do not invent an answer."
        ],
        [
          "\"",
          "Could we "
        ],
        [
          "pre",
          "pare "
        ],
        [
          "am writing to ",
          "kindly "
        ],
        [
          "tim",
          "e that "
        ],
        [
          "b",
          "er"
        ],
        [
          "e ",
          "of the "
        ],
        [
          "Wednes",
          "day."
        ],
        [
          "9WEI ",
          "is "
        ],
        [
          "mem",
          "ber"
        ],
        [
          "5",
          "0"
        ],
        [
          "you ",
          "would like to "
        ],
        [
          "ter",
          "n"
        ],
        [
          "specific",
          " "
        ],
        [
          "o",
          "ther "
        ],
        [
          "ai",
          "lab"
        ],
        [
          "av",
          "ailab"
        ],
        [
          "exp",
          "er"
        ],
        [
          "coop",
          "er"
        ],
        [
          "2",
          "1"
        ],
        [
          "produce tomorrow",
          ". The "
        ],
        [
          "I'm sorry, but I cannot provide the exact ",
          "random code that "
        ],
        [
          " will ",
          "produce tomorrow. The "
        ],
        [
          "invaluable, and I ",
          "am "
        ],
        [
          "other ",
          "time that "
        ],
        [
          "d",
          "ic"
        ],
        [
          "in",
          "form "
        ],
        [
          " that ",
          "N170"
        ],
        [
          "Summarize this supplied text in one clear sentence: ",
          "The "
        ],
        [
          "9WEI ",
          "must belong "
        ],
        [
          "pre",
          "dic"
        ],
        [
          "express my ",
          "gratitude for the "
        ],
        [
          ". It ",
          "must reach "
        ],
        [
          "mat",
          "ter"
        ],
        [
          "inform ",
          "you"
        ],
        [
          "u",
          "t"
        ],
        [
          "v",
          "ice"
        ],
        [
          ", ",
          "or "
        ],
        [
          " is ",
          "ready for "
        ],
        [
          "de",
          "vice"
        ],
        [
          "would be ",
          "more "
        ],
        [
          "discus",
          "s "
        ],
        [
          "convenient",
          ".\n\nThank you once again for your "
        ],
        [
          "invaluable, and I am ",
          "tru"
        ],
        [
          "would be more ",
          "convenient.\n\nThank you once again for your "
        ],
        [
          "in",
          "u"
        ],
        [
          "has ",
          "been "
        ],
        [
          ",\n\nI hope this message finds you well.\n\nI wanted to ",
          "take a moment to express my sincere "
        ],
        [
          "cont",
          "inu"
        ],
        [
          "\"",
          "You're "
        ],
        [
          "c",
          "ur"
        ],
        [
          "h",
          "ear"
        ],
        [
          "placed ",
          "a "
        ],
        [
          "I'm sorr",
          "y to "
        ],
        [
          "welcom",
          "e, "
        ],
        [
          "inform you",
          " that "
        ],
        [
          "\"You're ",
          "welcome, "
        ],
        [
          "I'm sorry to ",
          "hear"
        ],
        [
          "B",
          "r"
        ],
        [
          "O",
          "ut"
        ],
        [
          "b",
          "rac"
        ],
        [
          "c",
          "ould you "
        ],
        [
          "e",
          "ted "
        ],
        [
          "k",
          "eted "
        ],
        [
          "l",
          "o "
        ],
        [
          ", ",
          "welcom"
        ],
        [
          "10",
          "MIRA"
        ],
        [
          "only",
          " this "
        ],
        [
          " that ",
          "you're feel"
        ],
        [
          ".\nRewrite this as one professional, courteous sentence: “",
          "Br"
        ],
        [
          "text: ",
          "<"
        ],
        [
          "Hel",
          "lo "
        ],
        [
          "updat",
          "e the "
        ],
        [
          "put ",
          "only this "
        ],
        [
          "I'm sorry to hear",
          " that you're feel"
        ],
        [
          "Out",
          "put only this "
        ],
        [
          "brac",
          "keted "
        ],
        [
          ".\nRewrite this as one professional, courteous sentence: “Br",
          "ing "
        ],
        [
          "Output only this ",
          "bracketed "
        ],
        [
          "Output only this bracketed ",
          "text: <"
        ],
        [
          "at ",
          "14:20."
        ],
        [
          "in the front desk",
          "."
        ],
        [
          "and ask ",
          "for N170"
        ],
        [
          "tern",
          "al "
        ],
        [
          "other time that ",
          "would be more convenient.\n\nThank you once again for your "
        ],
        [
          "discuss ",
          "our "
        ],
        [
          "and ",
          "is "
        ],
        [
          "and ",
          "propose a meeting at "
        ],
        [
          ".\n\n",
          "To "
        ],
        [
          "com",
          "ple"
        ],
        [
          "di",
          "tion"
        ],
        [
          "Fri",
          "day."
        ],
        [
          "up",
          " "
        ],
        [
          " b",
          "elongs to LUMA-N220"
        ],
        [
          "read the message",
          ".\n[N110"
        ],
        [
          " belong ",
          "to NORU-N220"
        ],
        [
          " belong ",
          "to VERI-N220"
        ],
        [
          "better",
          ".” Ask one concise clarification question instead of assuming missing details."
        ],
        [
          "delay",
          "ed "
        ],
        [
          "re",
          "ac"
        ],
        [
          "on Mon",
          "day"
        ],
        [
          "that ",
          "you "
        ],
        [
          "if ",
          "you "
        ],
        [
          "e to our community",
          "!"
        ],
        [
          ", welcom",
          "e to our community!"
        ],
        [
          "7",
          "05"
        ],
        [
          "h",
          "es "
        ],
        [
          "Tues",
          "day."
        ],
        [
          "your earliest convenience",
          "?\""
        ],
        [
          "reac",
          "hes "
        ],
        [
          "is ",
          "typ"
        ],
        [
          "ic",
          "ally "
        ],
        [
          "mus",
          "t "
        ],
        [
          "es ",
          "is typ"
        ],
        [
          "of ",
          "random cod"
        ],
        [
          "Subject: ",
          "Meeting "
        ],
        [
          "assistan",
          "ce"
        ],
        [
          "next ",
          "step"
        ],
        [
          "improv",
          "e"
        ],
        [
          "generation ",
          "of random cod"
        ],
        [
          "you would like to ",
          "improve"
        ],
        [
          " will produce tomorrow. The ",
          "generation of random cod"
        ],
        [
          "es is typ",
          "ically "
        ],
        [
          " will produce tomorrow. The generation of random cod",
          "es is typically "
        ],
        [
          "c",
          "ase "
        ],
        [
          "Could you please specify what ",
          "type of "
        ],
        [
          "The draft ",
          "N15"
        ],
        [
          "projec",
          "t"
        ],
        [
          "if you ",
          "could "
        ],
        [
          "t",
          "'s "
        ],
        [
          "re",
          "le"
        ],
        [
          "ly",
          " thank"
        ],
        [
          "it's ",
          "okay to "
        ],
        [
          "ful ",
          "for your "
        ],
        [
          "look forward to our ",
          "continu"
        ],
        [
          "invaluable, and I am tru",
          "ly thank"
        ],
        [
          "invaluable, and I am truly thank",
          "ful for your "
        ],
        [
          "at ",
          "16:05."
        ],
        [
          ",\n\nI hope this message finds you well",
          ". I "
        ],
        [
          "ensu",
          "re "
        ],
        [
          "at ",
          "09:30."
        ],
        [
          "at ",
          "08:15."
        ],
        [
          "ts ",
          "of the "
        ],
        [
          "on Tues",
          "day"
        ],
        [
          "collec",
          "ted by "
        ],
        [
          "dat",
          "e and time "
        ],
        [
          "Could you please specify what ",
          "aspec"
        ],
        [
          "cur",
          "ren"
        ],
        [
          "Could you please specify what aspec",
          "ts of the "
        ],
        [
          "information ",
          "for "
        ],
        [
          "ick",
          "up "
        ],
        [
          "new ",
          "date and time "
        ],
        [
          "inform you that ",
          "I have "
        ],
        [
          "w",
          "ay"
        ],
        [
          "ten",
          " "
        ],
        [
          "on Wednes",
          "day"
        ],
        [
          "request ",
          "the "
        ],
        [
          "W",
          "ith"
        ],
        [
          "is ",
          "writ"
        ],
        [
          "ed ",
          "note"
        ],
        [
          ", ",
          "what "
        ],
        [
          "ted ",
          "information for "
        ],
        [
          "The ",
          "answer cannot be known from the information given"
        ],
        [
          "out ",
          "see"
        ],
        [
          "it",
          "? Say that the answer cannot be known from the information given; do not invent an answer."
        ],
        [
          "sentence ",
          "is writ"
        ],
        [
          "sta",
          "ted information for "
        ],
        [
          "Use only the ",
          "stated information for "
        ],
        [
          "item",
          "s or "
        ],
        [
          "ing the ",
          "seal"
        ],
        [
          "inside ",
          "it? Say that the answer cannot be known from the information given; do not invent an answer."
        ],
        [
          "would be ",
          "greatly appreciated"
        ],
        [
          "Ti",
          "me "
        ],
        [
          "if the",
          "re's an"
        ],
        [
          "ten ",
          "inside it? Say that the answer cannot be known from the information given; do not invent an answer."
        ],
        [
          "With",
          "out see"
        ],
        [
          "ed note",
          ", what "
        ],
        [
          "The answer cannot be known from the information given",
          "."
        ],
        [
          "sentence is writ",
          "ten inside it? Say that the answer cannot be known from the information given; do not invent an answer."
        ],
        [
          "Use only the stated information for ",
          "case "
        ],
        [
          "ing the seal",
          "ed note, what "
        ],
        [
          "Without see",
          "ing the sealed note, what "
        ],
        [
          "Without seeing the sealed note, what ",
          "sentence is written inside it? Say that the answer cannot be known from the information given; do not invent an answer."
        ],
        [
          "t",
          "y "
        ],
        [
          "te",
          "ly "
        ],
        [
          ". I",
          "t's "
        ],
        [
          "Follow the requested wording and format. Item ",
          "P1A-13-0"
        ],
        [
          "tain",
          "ty "
        ],
        [
          "uncer",
          "tainty "
        ],
        [
          "comple",
          "tely "
        ],
        [
          ". Re",
          "member"
        ],
        [
          "Work carefully from the text below. Case ",
          "P1A-13-0"
        ],
        [
          "Read the supplied context, then answer. Ticket ",
          "P1A-13-0"
        ],
        [
          "information giv",
          "en "
        ],
        [
          " ",
          "as "
        ],
        [
          "Complete this English practice task. Reference ",
          "P1A-13-0"
        ],
        [
          "-03",
          "8"
        ],
        [
          "number ",
          "hidden behind the closed card labeled "
        ],
        [
          "Could you please specify the ",
          "exact "
        ],
        [
          "15",
          "OMAR"
        ],
        [
          "Subject: ",
          "Confirmation "
        ],
        [
          "por",
          "tan"
        ],
        [
          "im",
          "portan"
        ],
        [
          "Use only the supplied material for item ",
          "P1A-13-0"
        ],
        [
          "attention to this ",
          "matter"
        ],
        [
          ".\n\nTo ",
          "further "
        ],
        [
          "Subject: Confirmation ",
          "of "
        ],
        [
          "p",
          "ickup "
        ],
        [
          "ing",
          "."
        ],
        [
          ". ",
          "Please let me know if this "
        ],
        [
          "understand",
          "ing and "
        ],
        [
          ", with a condensed version to be ",
          "rele"
        ],
        [
          ", with a condensed version to be rele",
          "ased "
        ],
        [
          "f",
          "re"
        ],
        [
          "g",
          "or"
        ],
        [
          "h",
          "um"
        ],
        [
          "to ",
          "make mistakes"
        ],
        [
          ". I",
          "f"
        ],
        [
          ", and ",
          "it's okay to "
        ],
        [
          "an ",
          "to make mistakes"
        ],
        [
          "ad ",
          "about "
        ],
        [
          "Subject: ",
          "Request for "
        ],
        [
          "feel b",
          "ad about "
        ],
        [
          ", it's ",
          "completely "
        ],
        [
          "?\n\n",
          "Thank you for your "
        ],
        [
          "hum",
          "an to make mistakes"
        ],
        [
          ", and it's okay to ",
          "feel bad about "
        ],
        [
          ", it's completely ",
          "human to make mistakes"
        ],
        [
          ", it's completely human to make mistakes",
          ", and it's okay to feel bad about "
        ],
        [
          "at ",
          "11:45."
        ],
        [
          "si",
          "b"
        ],
        [
          "Wei",
          " and "
        ],
        [
          "pos",
          "sib"
        ],
        [
          "Meeting ",
          "Time "
        ],
        [
          "on Fri",
          "day"
        ],
        [
          "ensure that ",
          "the "
        ],
        [
          "if there's an",
          "other time that would be more convenient.\n\nThank you once again for your "
        ],
        [
          "-",
          "con"
        ],
        [
          "5",
          ").\n"
        ],
        [
          "8",
          "-06"
        ],
        [
          "A",
          "n"
        ],
        [
          "er",
          " this "
        ],
        [
          ". ",
          "Ticket "
        ],
        [
          "ed ",
          "uncertainty "
        ],
        [
          "sw",
          "er this "
        ],
        [
          "ec",
          "k. Reference "
        ],
        [
          "without ",
          "inv"
        ],
        [
          "ent",
          "ing missing "
        ],
        [
          "facts",
          ". Ticket "
        ],
        [
          "Respond ",
          "to the "
        ],
        [
          "ch",
          "eck. Reference "
        ],
        [
          "bounded ",
          "request "
        ],
        [
          "tain",
          "ed uncertainty "
        ],
        [
          "What exact number is hidden behind the closed card labeled ",
          "N70"
        ],
        [
          "What exact random code will ",
          "device N70"
        ],
        [
          "self",
          "-con"
        ],
        [
          "An",
          "swer this "
        ],
        [
          "without inv",
          "enting missing "
        ],
        [
          "Respond to the ",
          "bounded request "
        ],
        [
          "tained uncertainty ",
          "check. Reference "
        ],
        [
          "self-con",
          "tained uncertainty check. Reference "
        ],
        [
          "Answer this ",
          "self-contained uncertainty check. Reference "
        ],
        [
          "without inventing missing ",
          "facts. Ticket "
        ],
        [
          "Respond to the bounded request ",
          "without inventing missing facts. Ticket "
        ],
        [
          "9",
          ").\n"
        ],
        [
          "is ",
          "schedul"
        ],
        [
          "P1A-10",
          "-06"
        ],
        [
          "prepare ",
          "for "
        ],
        [
          "cooper",
          "ation.\n\nBest regards,\n\n"
        ],
        [
          "invaluable, and I am truly thankful for your ",
          "help"
        ],
        [
          "1",
          ").\n"
        ],
        [
          "ask ",
          "if you could "
        ],
        [
          "P1S-ABS",
          "-02"
        ],
        [
          "What exact number is hidden behind the closed card labeled ",
          "N210"
        ],
        [
          ")",
          ".\nReason only from these nonce statements: The LUMA-N220"
        ],
        [
          "5",
          "-06"
        ],
        [
          "l",
          "ed"
        ],
        [
          "know",
          "led"
        ],
        [
          "Respond directly to this bounded English task (",
          "P1A-12-0"
        ],
        [
          "-03",
          "9"
        ],
        [
          "Could you please specify what type of ",
          "items or "
        ],
        [
          ". Remember",
          ", it's "
        ],
        [
          "knowled",
          "g"
        ],
        [
          "7",
          "-06"
        ],
        [
          "a",
          "ted "
        ],
        [
          "h",
          "ere "
        ],
        [
          "en",
          " the requested "
        ],
        [
          "is ",
          "un"
        ],
        [
          "ti",
          "se "
        ],
        [
          "the ",
          "information given "
        ],
        [
          "for ",
          "next week "
        ],
        [
          "ly ",
          "wh"
        ],
        [
          "sen",
          "t "
        ],
        [
          "cl",
          "ear"
        ],
        [
          "The ",
          "requested "
        ],
        [
          ". I",
          "tem "
        ],
        [
          "Uma ",
          "placed the "
        ],
        [
          "know",
          "able"
        ],
        [
          "te ",
          "clear"
        ],
        [
          ". Your ",
          "exper"
        ],
        [
          "Sta",
          "te clear"
        ],
        [
          "detail ",
          "is un"
        ],
        [
          "requested a quiet meeting",
          ", and "
        ],
        [
          "en the requested ",
          "detail is un"
        ],
        [
          "tise ",
          "and "
        ],
        [
          "for next week ",
          "cannot be known from the information given."
        ],
        [
          "ly wh",
          "en the requested detail is un"
        ],
        [
          "The requested ",
          "detail "
        ],
        [
          "knowable",
          ". Item "
        ],
        [
          ". Your exper",
          "tise and "
        ],
        [
          "State clear",
          "ly when the requested detail is un"
        ],
        [
          "State clearly when the requested detail is un",
          "knowable. Item "
        ],
        [
          "4",
          "-06"
        ],
        [
          "5",
          "-05"
        ],
        [
          "m",
          "an"
        ],
        [
          "ti",
          "l "
        ],
        [
          "un",
          "til "
        ],
        [
          "9WEI ",
          "b"
        ],
        [
          "feel ",
          "fre"
        ],
        [
          "time works for you",
          ", or "
        ],
        [
          "delayed ",
          "until "
        ],
        [
          "feel fre",
          "e to "
        ],
        [
          "1",
          "-06"
        ],
        [
          "ou",
          "gh"
        ],
        [
          "at ",
          "your earliest convenience?\""
        ],
        [
          "-01",
          "9"
        ],
        [
          "The requested detail ",
          "about "
        ],
        [
          "feel free to ",
          "ask"
        ],
        [
          "\n",
          "L"
        ],
        [
          "0",
          "-05"
        ],
        [
          "O",
          "bject: "
        ],
        [
          "el",
          ": "
        ],
        [
          "ab",
          "el: "
        ],
        [
          "me ",
          "to "
        ],
        [
          " the",
          "re's an"
        ],
        [
          "I'm sorry, but I cannot provide the exact ",
          "number hidden behind the closed card labeled "
        ],
        [
          "project",
          ". Your expertise and "
        ],
        [
          ". If",
          " there's an"
        ],
        [
          "\nL",
          "abel: "
        ],
        [
          ". If there's an",
          "y"
        ],
        [
          "\nLabel: ",
          "N120"
        ],
        [
          "'",
          "s in"
        ],
        [
          "0",
          "-06"
        ],
        [
          "4",
          "-05"
        ],
        [
          "7",
          "-05"
        ],
        [
          "8",
          "-05"
        ],
        [
          "G",
          "re"
        ],
        [
          "r",
          "y "
        ],
        [
          "ent",
          "ry "
        ],
        [
          "br",
          "ing "
        ],
        [
          "P1A-10",
          "-05"
        ],
        [
          "ask if you could ",
          "bring the "
        ],
        [
          " ",
          "tomorrow"
        ],
        [
          "1",
          "-05"
        ],
        [
          "6",
          "-05"
        ],
        [
          "9",
          "-05"
        ],
        [
          "9",
          "-04"
        ],
        [
          "b",
          "y the "
        ],
        [
          "c",
          "ollabor"
        ],
        [
          "Give only the requested answer for exercise ",
          "P1A-13-0"
        ],
        [
          "4",
          "-02"
        ],
        [
          "al",
          "gor"
        ],
        [
          "without ",
          "specific "
        ],
        [
          "do",
          "es "
        ],
        [
          "natur",
          "e of the "
        ],
        [
          "for your ",
          "assistance "
        ],
        [
          "Handle this language task without outside facts. Ref P1A-0",
          "3-0"
        ],
        [
          "gratitude ",
          "for your assistance "
        ],
        [
          "Subject: Confirmation of ",
          "Meeting Time "
        ],
        [
          ". Please let me know if this ",
          "time works for you, or "
        ],
        [
          "project. Your expertise and ",
          "support "
        ],
        [
          "algor",
          "ith"
        ],
        [
          "without specific ",
          "knowledg"
        ],
        [
          "1",
          "-04"
        ],
        [
          "9",
          "-06"
        ],
        [
          ". ",
          "Wh"
        ],
        [
          "at",
          "'s "
        ],
        [
          "05",
          "OMAR"
        ],
        [
          "Complete this English practice task. Reference P1A-0",
          "3-0"
        ],
        [
          ",\n\nI hope this message finds you well.\n\nI wanted to ",
          "express my gratitude for the "
        ],
        [
          " copies",
          ", and "
        ],
        [
          ",\n\nI hope this message finds you well.\n\nI wanted to take a moment to express my sincere ",
          "gratitude for your assistance "
        ],
        [
          "update the ",
          "N18"
        ],
        [
          "must ",
          "ensure that the "
        ],
        [
          "importan",
          "t is "
        ],
        [
          ". Wh",
          "at's "
        ],
        [
          ". What's ",
          "important is "
        ],
        [
          "5",
          "-04"
        ],
        [
          "9",
          "-02"
        ],
        [
          "t",
          "ab"
        ],
        [
          "to ",
          "me "
        ],
        [
          "Mira ",
          "placed the "
        ],
        [
          "tomorro",
          "w "
        ],
        [
          "name: ",
          "Luis"
        ],
        [
          "-01",
          "8"
        ],
        [
          "lear",
          "n"
        ],
        [
          "device",
          "'s in"
        ],
        [
          ".\n\nTo further ",
          "discuss our "
        ],
        [
          "is schedul",
          "ed to "
        ],
        [
          "device's in",
          "ternal "
        ],
        [
          "3",
          ").\n"
        ],
        [
          "7",
          "-02"
        ],
        [
          "7",
          "-04"
        ],
        [
          "A",
          "d"
        ],
        [
          "o",
          "ver"
        ],
        [
          "al",
          "ly"
        ],
        [
          "pro",
          "c"
        ],
        [
          "rec",
          "ent "
        ],
        [
          "specif",
          "y "
        ],
        [
          "-03",
          "7"
        ],
        [
          "Work carefully from the text below. Case P1A-0",
          "3-0"
        ],
        [
          "Handle this language task without outside facts. Ref P1A-0",
          "2-0"
        ],
        [
          "Respond directly to this bounded English task (P1A-0",
          "3-0"
        ],
        [
          "Follow the requested wording and format. Item P1A-0",
          "2-0"
        ],
        [
          "name: ",
          "Omar"
        ],
        [
          "name: ",
          "Theo"
        ],
        [
          "up",
          "d"
        ],
        [
          "dition",
          "ally"
        ],
        [
          "entry ",
          "by "
        ],
        [
          "Ad",
          "ditionally"
        ],
        [
          "\"",
          "Could you please "
        ],
        [
          "6",
          "-06"
        ],
        [
          "b",
          "ased "
        ],
        [
          "g",
          "ro"
        ],
        [
          "l",
          "l"
        ],
        [
          "s",
          "y"
        ],
        [
          "s",
          "tem "
        ],
        [
          "ed ",
          "by the "
        ],
        [
          ", ",
          "I "
        ],
        [
          "ag",
          "ed by the "
        ],
        [
          "not ",
          "predic"
        ],
        [
          "comm",
          "en"
        ],
        [
          "I'm ",
          "here "
        ],
        [
          "opened the door",
          "; [N110"
        ],
        [
          "Use only the supplied material for item ",
          "P1A-12-0"
        ],
        [
          "and is ",
          "not predic"
        ],
        [
          " will produce tomorrow. The generation of random codes is typically ",
          "man"
        ],
        [
          "tab",
          "le "
        ],
        [
          "device's internal ",
          "sy"
        ],
        [
          "stem ",
          "and is not predic"
        ],
        [
          "aged by the ",
          "device's internal sy"
        ],
        [
          " will produce tomorrow. The generation of random codes is typically man",
          "aged by the device's internal sy"
        ],
        [
          "stem and is not predic",
          "table "
        ],
        [
          " will produce tomorrow. The generation of random codes is typically managed by the device's internal sy",
          "stem and is not predictable "
        ],
        [
          "sen",
          "d "
        ],
        [
          ",\n\n",
          "\n"
        ],
        [
          "Respond directly to this bounded English task (",
          "P1A-11"
        ],
        [
          "Handle this language task without outside facts. Ref ",
          "P1A-12-0"
        ],
        [
          "Complete this English practice task. Reference P1A-0",
          "2-0"
        ],
        [
          "Give only the requested answer for exercise P1A-0",
          "3-0"
        ],
        [
          "-01",
          "7"
        ],
        [
          "mat",
          "ter "
        ],
        [
          " as ",
          "the information given "
        ],
        [
          "\n",
          "Dear "
        ],
        [
          "0",
          "-02"
        ],
        [
          "6",
          "-02"
        ],
        [
          "6",
          "-04"
        ],
        [
          ".\n",
          "Put the event labels in logical order. Return the labels in order without commentary: [N110"
        ],
        [
          "you ",
          "need"
        ],
        [
          "\n\n",
          "\nDear "
        ],
        [
          " is ",
          "delayed until "
        ],
        [
          "Complete this English practice task. Reference ",
          "P1A-11"
        ],
        [
          "by ",
          "14:20."
        ],
        [
          "noteboo",
          "k"
        ],
        [
          "Respond directly to this bounded English task (P1A-0",
          "2-0"
        ],
        [
          "What exact random code will ",
          "device N210"
        ],
        [
          "I'm sorry, but I cannot provide the exact random code that ",
          "device N210"
        ],
        [
          "Could you please specify the exact ",
          "nature of the "
        ],
        [
          ". Remember, it's ",
          "okay to "
        ],
        [
          ",\n\nI hope this message finds you well.\n\nI wanted to take a moment to express my sincere gratitude for your assistance ",
          "with the "
        ],
        [
          ",\n\n\n",
          "I hope this message finds you well"
        ],
        [
          "you need",
          ", "
        ],
        [
          ",",
          "\n"
        ],
        [
          "8",
          "-02"
        ],
        [
          "8",
          "-04"
        ],
        [
          " this ",
          "way"
        ],
        [
          "ard",
          "."
        ],
        [
          "Nora ",
          "placed the "
        ],
        [
          ".\n\nBest regards",
          ",\n"
        ],
        [
          "se ",
          "you need, "
        ],
        [
          "forw",
          "ard."
        ],
        [
          "Follow the requested wording and format. Item ",
          "P1A-12-0"
        ],
        [
          ". I ",
          "look forward to our continu"
        ],
        [
          "thing el",
          "se you need, "
        ],
        [
          "you would like to improve",
          "?"
        ],
        [
          "feel free to ask",
          ".\""
        ],
        [
          ". If there's any",
          "thing else you need, "
        ],
        [
          "upd",
          "ated "
        ],
        [
          ". If there's anything else you need, ",
          "feel free to ask.\""
        ],
        [
          "0",
          "-04"
        ],
        [
          "1",
          "-02"
        ],
        [
          "5",
          "-02"
        ],
        [
          "and ",
          "Meeting "
        ],
        [
          "pro",
          "gre"
        ],
        [
          "Read the supplied context, then answer. Ticket ",
          "P1A-12-0"
        ],
        [
          "time ",
          "and "
        ],
        [
          "Work carefully from the text below. Case P1A-0",
          "2-0"
        ],
        [
          "Use only the supplied material for item P1A-0",
          "3-0"
        ],
        [
          "P1A-10",
          "-02"
        ],
        [
          "P1A-10",
          "-04"
        ],
        [
          "every ",
          "Monday."
        ],
        [
          "Subject: Appreciation ",
          "and Meeting "
        ],
        [
          "assistance",
          ".\n\nBest regards,\n\n"
        ],
        [
          "progre",
          "s"
        ],
        [
          "7",
          ").\n"
        ],
        [
          "a",
          "ted by "
        ],
        [
          "ac",
          "comm"
        ],
        [
          "4NORA",
          "."
        ],
        [
          "Asha ",
          "placed the "
        ],
        [
          "'s ",
          "choice "
        ],
        [
          "Read the supplied context, then answer. Ticket P1A-0",
          "2-0"
        ],
        [
          "Read the supplied context, then answer. Ticket P1A-0",
          "3-0"
        ],
        [
          "Request ",
          "and "
        ],
        [
          "reserv",
          "ing the "
        ],
        [
          "od",
          "ated by "
        ],
        [
          "requested a quiet meeting",
          ", which "
        ],
        [
          "am writing to kindly ",
          "ask if you could bring the "
        ],
        [
          "Subject: Meeting ",
          "Request and "
        ],
        [
          "Additionally",
          ", I would like to "
        ],
        [
          "accomm",
          "odated by "
        ],
        [
          "'s choice ",
          "for next week cannot be known from the information given."
        ],
        [
          "accommodated by ",
          "reserving the "
        ],
        [
          "4",
          "-04"
        ],
        [
          "D",
          "NE"
        ],
        [
          "I",
          "n "
        ],
        [
          "k",
          "ing."
        ],
        [
          "Th",
          "is "
        ],
        [
          ".\n\n",
          "In "
        ],
        [
          "WE",
          "DNE"
        ],
        [
          "information ",
          "you're "
        ],
        [
          "to the ",
          "quiet room "
        ],
        [
          "be ",
          "collected by "
        ],
        [
          "s, ",
          "I would like to "
        ],
        [
          "name: ",
          "Jon"
        ],
        [
          "my ",
          "schedul"
        ],
        [
          "schedul",
          "ed for "
        ],
        [
          "Please ",
          "could you "
        ],
        [
          "I'm sorry, but I cannot provide the ",
          "information you're "
        ],
        [
          "see",
          "king."
        ],
        [
          "WEDNE",
          "SDAY|"
        ],
        [
          "I'm sorry, but I cannot provide the information you're ",
          "seeking."
        ],
        [
          "P",
          "ro"
        ],
        [
          "g",
          "l"
        ],
        [
          ".\n",
          "Draft a short, polite email from "
        ],
        [
          "with",
          " this "
        ],
        [
          "al",
          "\n\nDear "
        ],
        [
          "I ",
          "could "
        ],
        [
          "please ",
          "reschedule our meeting to "
        ],
        [
          "ad ",
          "I could "
        ],
        [
          "Use only the supplied material for item P1A-0",
          "2-0"
        ],
        [
          "pos",
          "al\n\nDear "
        ],
        [
          "up",
          "coming "
        ],
        [
          "garden ",
          "for "
        ],
        [
          "lear",
          "n "
        ],
        [
          ", could you please ",
          "send the "
        ],
        [
          "\"Could we ",
          "please reschedule our meeting to "
        ],
        [
          " is ready for ",
          "pickup "
        ],
        [
          "would be greatly appreciated",
          ".\n\nThank you for your "
        ],
        [
          "attention to this matter",
          ".\n\nBest regards,\n\n"
        ],
        [
          "Subject: Appreciation and Meeting ",
          "Pro"
        ],
        [
          "gl",
          "ad I could "
        ],
        [
          "Subject: Appreciation and Meeting Pro",
          "posal\n\nDear "
        ],
        [
          "l",
          "e to "
        ],
        [
          "you ",
          "would like "
        ],
        [
          "you ",
          "provided "
        ],
        [
          "ent",
          "ly"
        ],
        [
          "rec",
          "ently"
        ],
        [
          "4NORA",
          " ready"
        ],
        [
          "6PRIYA",
          " ready"
        ],
        [
          "Uma ",
          "will meet "
        ],
        [
          "to the ",
          "front desk "
        ],
        [
          "by ",
          "09:30."
        ],
        [
          "Return exactly two ",
          "plain-text lines and no Markdown. The first line must be `"
        ],
        [
          "9WEI-",
          "ONE] the last visitor left; [N110"
        ],
        [
          "every ",
          "Tuesday."
        ],
        [
          "-LAST] ",
          "Mira "
        ],
        [
          "-NEXT] ",
          "Mira "
        ],
        [
          "availab",
          "le "
        ],
        [
          "understanding and ",
          "cooperation.\n\nBest regards,\n\n"
        ],
        [
          "proc",
          "ess"
        ],
        [
          "progres",
          "s and "
        ],
        [
          "Uma will meet ",
          "Omar "
        ],
        [
          "i",
          "l"
        ],
        [
          "v",
          "e "
        ],
        [
          "re",
          "d "
        ],
        [
          ". ",
          "The"
        ],
        [
          "Complete this English practice task. Reference ",
          "P1A-12-0"
        ],
        [
          "Give only the requested answer for exercise ",
          "P1A-12-0"
        ],
        [
          "9WEI",
          ". Return exactly the final class PAVO-N220"
        ],
        [
          "The meeting ",
          "will "
        ],
        [
          "east hall ",
          "for "
        ],
        [
          "ef",
          "for"
        ],
        [
          ". Could you please ",
          "confirm "
        ],
        [
          "9WEI must belong ",
          "to."
        ],
        [
          "me to ",
          "prepare for "
        ],
        [
          "is scheduled to ",
          "be collected by "
        ],
        [
          "-",
          "notebook"
        ],
        [
          "B",
          "lue "
        ],
        [
          "E",
          "SDAY|"
        ],
        [
          "F",
          "old"
        ],
        [
          "R",
          "SDAY|"
        ],
        [
          "T",
          "U"
        ],
        [
          "U",
          "RSDAY|"
        ],
        [
          "en",
          "-notebook"
        ],
        [
          "TH",
          "URSDAY|"
        ],
        [
          "gre",
          "en-notebook"
        ],
        [
          "Priya ",
          "requested "
        ],
        [
          "Priya ",
          "placed the "
        ],
        [
          "name: ",
          "Wei"
        ],
        [
          "front desk",
          "."
        ],
        [
          "3LUIS-",
          "START] the box was opened; [N110"
        ],
        [
          "del",
          "iv"
        ],
        [
          "will br",
          "ing "
        ],
        [
          "st",
          "ar"
        ],
        [
          "Wei and ",
          "Asha "
        ],
        [
          "recently",
          ". Your "
        ],
        [
          "Blue ",
          "Fold"
        ],
        [
          "TU",
          "ESDAY|"
        ],
        [
          "green-notebook",
          ">"
        ],
        [
          "Blue Fold",
          "er "
        ],
        [
          "The ",
          "objec"
        ],
        [
          "sh",
          "ip"
        ],
        [
          "label",
          " is "
        ],
        [
          "in the ",
          "reading area "
        ],
        [
          "in the ",
          "garden "
        ],
        [
          "ver",
          "y"
        ],
        [
          "t is ",
          "a "
        ],
        [
          "by ",
          "11:45."
        ],
        [
          "Give only the requested answer for exercise P1A-0",
          "2-0"
        ],
        [
          "Could you please ",
          "bring "
        ],
        [
          "its ",
          "label is "
        ],
        [
          ". Your ",
          "assistance "
        ],
        [
          ", it's completely human to make mistakes, and it's okay to feel bad about ",
          "it"
        ],
        [
          "I'm sorry, but I cannot provide the exact number hidden behind the closed card labeled ",
          "N210"
        ],
        [
          "name: Omar",
          "\ncount: "
        ],
        [
          "name: Theo",
          "\ncount: "
        ],
        [
          "The objec",
          "t is a "
        ],
        [
          "its label is ",
          "N120"
        ],
        [
          "F",
          "RI"
        ],
        [
          "b",
          "lu"
        ],
        [
          "er",
          ">"
        ],
        [
          "1JON",
          ". Return exactly the final class PAVO-N220"
        ],
        [
          "1JON",
          " must belong to."
        ],
        [
          "1JON",
          " moved to "
        ],
        [
          "7THEO",
          " moved to "
        ],
        [
          "4NORA",
          ". Return exactly the final class PAVO-N220"
        ],
        [
          "4NORA",
          " must belong to."
        ],
        [
          "4NORA",
          ". PAVO-N220"
        ],
        [
          "8UMA",
          " ready"
        ],
        [
          "Priya ",
          "will meet "
        ],
        [
          "Asha ",
          "will meet "
        ],
        [
          "fold",
          "er>"
        ],
        [
          "for N1",
          "705"
        ],
        [
          "Jon",
          "\nright="
        ],
        [
          "Theo",
          "\nright="
        ],
        [
          "e-",
          "folder>"
        ],
        [
          "every ",
          "Thursday."
        ],
        [
          "Subject: Appreciation ",
          "for the "
        ],
        [
          "name: Luis",
          "\ncount: "
        ],
        [
          ". Your assistance ",
          "with this "
        ],
        [
          "FRI",
          "DAY|"
        ],
        [
          "blu",
          "e-folder>"
        ],
        [
          "Priya will meet ",
          "Luis "
        ],
        [
          "Asha will meet ",
          "Wei "
        ],
        [
          "Jon\nright=",
          "Nora"
        ],
        [
          "Theo\nright=",
          "Mira"
        ],
        [
          "\"",
          "Dear "
        ],
        [
          "j",
          "us"
        ],
        [
          "at ",
          "08:15"
        ],
        [
          "ad",
          "jus"
        ],
        [
          "2ASHA",
          "."
        ],
        [
          ", and ",
          "its label is N120"
        ],
        [
          "Work carefully from the text below. Case ",
          "P1A-12-0"
        ],
        [
          "Draft a short, polite email from ",
          "Theo "
        ],
        [
          "item: ",
          "meeting note"
        ],
        [
          "meeting note",
          "` and the second line must be `code: N19"
        ],
        [
          ".\nReturn exactly two plain-text lines and no Markdown. The first line must be `item: ",
          "meeting note` and the second line must be `code: N19"
        ],
        [
          "you provided ",
          "me "
        ],
        [
          "item: meeting note",
          "\ncode: N19"
        ],
        [
          "7",
          "-03"
        ],
        [
          "f",
          "err"
        ],
        [
          "n",
          "er"
        ],
        [
          "and ",
          "Mira "
        ],
        [
          "en ",
          "Note"
        ],
        [
          ".\n\n",
          "Additionally, I would like to "
        ],
        [
          "4NORA",
          "-LAST] "
        ],
        [
          "4NORA",
          "-NEXT] "
        ],
        [
          "2ASHA",
          " ready"
        ],
        [
          "6PRIYA",
          "-LAST] "
        ],
        [
          "6PRIYA",
          "-NEXT] "
        ],
        [
          ", and ",
          "I'm here "
        ],
        [
          "Uma ",
          "requested "
        ],
        [
          "boo",
          "k "
        ],
        [
          "Omar",
          "\nright="
        ],
        [
          "Combine the supplied statements into one concise, fluent sentence without dropping any detail: ",
          "Mira "
        ],
        [
          "mov",
          "ing "
        ],
        [
          "item: ",
          "draft"
        ],
        [
          "Theo ",
          "and Mira "
        ],
        [
          "1JON-",
          "START] the box was opened; [N110"
        ],
        [
          "7THEO-",
          "START] the box was opened; [N110"
        ],
        [
          "every ",
          "Wednesday."
        ],
        [
          ".\nReturn exactly two plain-text lines and no Markdown. The first line must be `item: ",
          "draft"
        ],
        [
          "-ACT] ",
          "Mira "
        ],
        [
          "opened the door",
          ".\n[N110"
        ],
        [
          "-PREP] ",
          "Mira "
        ],
        [
          "entered the room",
          ".\n[N110"
        ],
        [
          "front desk ",
          "for "
        ],
        [
          "I'm sorry to hear that you're feel",
          "ing "
        ],
        [
          "Gre",
          "en Note"
        ],
        [
          ". Please let me know if this time works for you, or ",
          "if there's another time that would be more convenient.\n\nThank you once again for your "
        ],
        [
          ".\n\nTo further discuss our ",
          "progress and "
        ],
        [
          "commen",
          "ce "
        ],
        [
          "The meeting will ",
          "commence "
        ],
        [
          "4NORA-LAST] ",
          "Nora "
        ],
        [
          "4NORA-NEXT] ",
          "Nora "
        ],
        [
          "6PRIYA-LAST] ",
          "Priya "
        ],
        [
          "6PRIYA-NEXT] ",
          "Priya "
        ],
        [
          "Omar\nright=",
          "Uma"
        ],
        [
          "item: draft",
          "\ncode: N19"
        ],
        [
          ".\nReturn exactly two plain-text lines and no Markdown. The first line must be `item: draft",
          "` and the second line must be `code: N19"
        ],
        [
          "Green Note",
          "book "
        ],
        [
          "p",
          "r"
        ],
        [
          "om",
          "p"
        ],
        [
          "is",
          "i"
        ],
        [
          "and ",
          "Priya "
        ],
        [
          "ow",
          " "
        ],
        [
          "it",
          "y "
        ],
        [
          "es ",
          "you would like "
        ],
        [
          "3LUIS",
          ". Return exactly the final class PAVO-N220"
        ],
        [
          "3LUIS",
          " must belong to."
        ],
        [
          "to the ",
          "reading area "
        ],
        [
          "in the quiet room",
          " "
        ],
        [
          "kindly ",
          "reschedule our meeting to "
        ],
        [
          "quiet room ",
          "for "
        ],
        [
          "provid",
          "ed"
        ],
        [
          "dec",
          "isi"
        ],
        [
          "next step",
          "s, I would like to "
        ],
        [
          "collabor",
          "ation"
        ],
        [
          "Subject: Confirmation of Meeting Time ",
          "Chang"
        ],
        [
          ". What's important is ",
          "that you "
        ],
        [
          "deliv",
          "ere"
        ],
        [
          "star",
          "ts "
        ],
        [
          "pr",
          "omp"
        ],
        [
          "S",
          "mall "
        ],
        [
          "m",
          "in"
        ],
        [
          "t",
          "ner"
        ],
        [
          "in",
          "su"
        ],
        [
          "re",
          "ferr"
        ],
        [
          "is ",
          "insu"
        ],
        [
          ". ",
          "W"
        ],
        [
          "and ",
          "Request for "
        ],
        [
          "no",
          "w "
        ],
        [
          "ic",
          "ient"
        ],
        [
          "par",
          "tner"
        ],
        [
          "was ",
          "reviewed "
        ],
        [
          "2ASHA",
          "-LAST] "
        ],
        [
          "2ASHA",
          "-NEXT] "
        ],
        [
          "2ASHA",
          "-ACT] "
        ],
        [
          "2ASHA",
          "-PREP] "
        ],
        [
          "6PRIYA",
          "`."
        ],
        [
          "6PRIYA",
          "-ACT] "
        ],
        [
          "6PRIYA",
          "-PREP] "
        ],
        [
          "8UMA",
          "-LAST] "
        ],
        [
          "8UMA",
          "-NEXT] "
        ],
        [
          "Mira ",
          "will meet "
        ],
        [
          "Asha ",
          "requested "
        ],
        [
          "Luis ",
          "and Priya "
        ],
        [
          "2.\n",
          "Put the event labels in logical order. Return the labels in order without commentary: [N110"
        ],
        [
          "Best regards",
          ",\n\n"
        ],
        [
          "Luis",
          "\nright="
        ],
        [
          "are ",
          "referr"
        ],
        [
          "3LUIS-",
          "ONE] the last visitor left; [N110"
        ],
        [
          "assistance ",
          "you provided me "
        ],
        [
          "ff",
          "icient"
        ],
        [
          "gratitude for the ",
          "assistance you provided me "
        ],
        [
          ".\n\n\n",
          "Best regards,\n\n"
        ],
        [
          "\"Could we ",
          "kindly reschedule our meeting to "
        ],
        [
          ",\n\nI hope this message finds you well. I ",
          "wanted to "
        ],
        [
          "9WEI b",
          "elong "
        ],
        [
          "name: Jon",
          "\ncount: "
        ],
        [
          "recently. Your ",
          "support "
        ],
        [
          "delivere",
          "d "
        ],
        [
          "is insu",
          "fficient"
        ],
        [
          "partner",
          "ship"
        ],
        [
          "2ASHA-LAST] ",
          "Asha "
        ],
        [
          "2ASHA-NEXT] ",
          "Asha "
        ],
        [
          "2ASHA-ACT] ",
          "Asha "
        ],
        [
          "2ASHA-PREP] ",
          "Asha "
        ],
        [
          "6PRIYA-ACT] ",
          "Priya "
        ],
        [
          "6PRIYA-PREP] ",
          "Priya "
        ],
        [
          "8UMA-LAST] ",
          "Uma "
        ],
        [
          "8UMA-NEXT] ",
          "Uma "
        ],
        [
          "Mira will meet ",
          "Theo "
        ],
        [
          "Luis\nright=",
          "Priya"
        ],
        [
          "are referr",
          "ing to "
        ],
        [
          "gratitude for the assistance you provided me ",
          "recently. Your support "
        ],
        [
          "is insufficient",
          "."
        ],
        [
          "8",
          "-03"
        ],
        [
          "i",
          "ent "
        ],
        [
          "ed ",
          "about tomorrow.” Reply warmly in one or two sentences."
        ],
        [
          "20",
          ".\n"
        ],
        [
          "at ",
          "the "
        ],
        [
          "1JON",
          " was reviewed "
        ],
        [
          "8UMA",
          "`."
        ],
        [
          "to the ",
          "garden "
        ],
        [
          "to the ",
          "east hall "
        ],
        [
          "'s ",
          "meeting"
        ],
        [
          "by ",
          "08:15."
        ],
        [
          "2.\n",
          "Asha "
        ],
        [
          "2.\n",
          "Draft a short, polite email from "
        ],
        [
          "Draft a short, polite email from ",
          "Uma "
        ],
        [
          "8.\n",
          "Draft a short, polite email from Uma "
        ],
        [
          "ok",
          "ing "
        ],
        [
          "will bring them ",
          "on Monday."
        ],
        [
          "underst",
          "and "
        ],
        [
          "project. Your expertise and support ",
          "were "
        ],
        [
          "recent ",
          "project. Your expertise and support were "
        ],
        [
          "il",
          "ity "
        ],
        [
          "'s meeting",
          "?"
        ],
        [
          "2.\nDraft a short, polite email from ",
          "Asha "
        ],
        [
          ")",
          ".\nRewrite this as one professional, courteous sentence: “Bring "
        ],
        [
          "-",
          "parcel"
        ],
        [
          "M",
          "ON"
        ],
        [
          "P",
          "ar"
        ],
        [
          "c",
          "el "
        ],
        [
          "s",
          "ma"
        ],
        [
          "re",
          "arranged "
        ],
        [
          "ing",
          " this way"
        ],
        [
          "ti",
          "vi"
        ],
        [
          "and ",
          "Uma "
        ],
        [
          "and ",
          "Nora "
        ],
        [
          "ac",
          "tivi"
        ],
        [
          "7THEO",
          ". Return exactly the final class PAVO-N220"
        ],
        [
          "7THEO",
          " must belong to."
        ],
        [
          "7THEO",
          " was reviewed "
        ],
        [
          "2ASHA",
          ". Return exactly the final class PAVO-N220"
        ],
        [
          "2ASHA",
          " must belong to."
        ],
        [
          "2ASHA",
          ". PAVO-N220"
        ],
        [
          "Draft a short, polite email from ",
          "Luis "
        ],
        [
          "Draft a short, polite email from ",
          "Jon "
        ],
        [
          "Combine the supplied statements into one concise, fluent sentence without dropping any detail: ",
          "Nora "
        ],
        [
          "mov",
          "e "
        ],
        [
          "Omar ",
          "and Uma "
        ],
        [
          "Jon ",
          "and Nora "
        ],
        [
          "ne",
          "ed to "
        ],
        [
          "1JON-",
          "ONE] the last visitor left; [N110"
        ],
        [
          "I'm sorry to hear that you're feel",
          "ing this way"
        ],
        [
          "Could you please specify what type of items or ",
          "activi"
        ],
        [
          "ll",
          "-parcel"
        ],
        [
          ". What's important is that you ",
          "learn "
        ],
        [
          "gratitude for the assistance you provided me recently. Your support ",
          "has been "
        ],
        [
          "MON",
          "DAY|"
        ],
        [
          "Par",
          "cel "
        ],
        [
          "sma",
          "ll-parcel"
        ],
        [
          "Could you please specify what type of items or activi",
          "ti"
        ],
        [
          "small-parcel",
          ">"
        ],
        [
          "and ",
          "move "
        ],
        [
          "con",
          "text "
        ],
        [
          "Subject: ",
          "Re"
        ],
        [
          "\n\nDear ",
          "Uma"
        ],
        [
          "ed c",
          "ollabor"
        ],
        [
          "availab",
          "ility "
        ],
        [
          "and move ",
          "forward."
        ],
        [
          " ",
          "entry by "
        ],
        [
          "0",
          "10"
        ],
        [
          "9",
          "-03"
        ],
        [
          "ed ",
          "partnership"
        ],
        [
          "for ",
          "N20"
        ],
        [
          "meeting ",
          "time "
        ],
        [
          "70",
          ".\n"
        ],
        [
          "Nora ",
          "will meet "
        ],
        [
          "de",
          "ter"
        ],
        [
          "Draft a short, polite email from ",
          "Priya "
        ],
        [
          "item: ",
          "green notebook"
        ],
        [
          "9WEI ",
          "moved to "
        ],
        [
          "9WEI ",
          "was reviewed "
        ],
        [
          "6.\n",
          "Draft a short, polite email from Priya "
        ],
        [
          "9WEI-",
          "START] the box was opened; [N110"
        ],
        [
          "7THEO-",
          "ONE] the last visitor left; [N110"
        ],
        [
          "request ",
          "that you "
        ],
        [
          "request ",
          "for N20"
        ],
        [
          "every ",
          "Friday."
        ],
        [
          "arrang",
          "ed the "
        ],
        [
          ".\nReturn exactly two plain-text lines and no Markdown. The first line must be `item: ",
          "green notebook"
        ],
        [
          "will bring them ",
          "on Friday."
        ],
        [
          "ensur",
          "e the "
        ],
        [
          "possib",
          "le to "
        ],
        [
          "time and ",
          "effor"
        ],
        [
          "name: Wei",
          "\ncount: "
        ],
        [
          "Nora will meet ",
          "Jon "
        ],
        [
          "item: green notebook",
          "\ncode: N19"
        ],
        [
          ".\nReturn exactly two plain-text lines and no Markdown. The first line must be `item: green notebook",
          "` and the second line must be `code: N19"
        ],
        [
          "possible to ",
          "deter"
        ],
        [
          "6",
          "-03"
        ],
        [
          "for ",
          "our "
        ],
        [
          "at",
          "e and time "
        ],
        [
          "in the ",
          "east hall "
        ],
        [
          "6PRIYA",
          "."
        ],
        [
          "ple",
          "as"
        ],
        [
          "ch",
          "ang"
        ],
        [
          "16",
          ".\n"
        ],
        [
          "t d",
          "ate and time "
        ],
        [
          "Thurs",
          "day at "
        ],
        [
          "P1A-10",
          "-03"
        ],
        [
          "item: ",
          "small parcel"
        ],
        [
          "P1S-ABS",
          "-03"
        ],
        [
          ".\nReturn exactly two plain-text lines and no Markdown. The first line must be `item: ",
          "small parcel"
        ],
        [
          "Could you please specify the ",
          "curren"
        ],
        [
          "curren",
          "t "
        ],
        [
          "new date and time ",
          "for "
        ],
        [
          ",\n\n\nI hope this message finds you well",
          ". I "
        ],
        [
          ". Your assistance with this ",
          "matter "
        ],
        [
          "t date and time ",
          "of the "
        ],
        [
          "item: small parcel",
          "\ncode: N19"
        ],
        [
          ".\nReturn exactly two plain-text lines and no Markdown. The first line must be `item: small parcel",
          "` and the second line must be `code: N19"
        ],
        [
          "Could you please specify the curren",
          "t date and time of the "
        ],
        [
          "0",
          "-03"
        ],
        [
          "4",
          "-03"
        ],
        [
          "D",
          "o"
        ],
        [
          "t",
          "ra"
        ],
        [
          " th",
          "ere "
        ],
        [
          "el",
          "m"
        ],
        [
          "fr",
          "us"
        ],
        [
          "you ",
          "are referring to "
        ],
        [
          "us",
          "e "
        ],
        [
          "wh",
          "elm"
        ],
        [
          "4NORA",
          "`."
        ],
        [
          "2ASHA",
          "`."
        ],
        [
          "8UMA",
          "-ACT] "
        ],
        [
          "8UMA",
          "-PREP] "
        ],
        [
          "Wei",
          "\nright="
        ],
        [
          "by ",
          "16:05."
        ],
        [
          "9WEI",
          "."
        ],
        [
          "8.\n",
          "Put the event labels in logical order. Return the labels in order without commentary: [N110"
        ],
        [
          "item: ",
          "blue folder"
        ],
        [
          "\n\nDear ",
          "Mira"
        ],
        [
          ",\n\nI hope this message finds you well.\n\nI ",
          "am writing to "
        ],
        [
          "Meeting ",
          "Note"
        ],
        [
          ".\nReturn exactly two plain-text lines and no Markdown. The first line must be `item: ",
          "blue folder"
        ],
        [
          "Appreci",
          "ation"
        ],
        [
          "Hel",
          "lo"
        ],
        [
          "9WEI must belong ",
          "to NORU-N220"
        ],
        [
          "does ",
          "not "
        ],
        [
          "over",
          "whelm"
        ],
        [
          "gro",
          "w"
        ],
        [
          "Subject: Meeting Request and ",
          "Appreciation"
        ],
        [
          ". Could you please confirm ",
          "if this "
        ],
        [
          "recent project. Your expertise and support were ",
          "invaluable, and I am truly thankful for your help"
        ],
        [
          "Do",
          "cum"
        ],
        [
          "frus",
          "tra"
        ],
        [
          "8UMA-ACT] ",
          "Uma "
        ],
        [
          "8UMA-PREP] ",
          "Uma "
        ],
        [
          "Wei\nright=",
          "Asha"
        ],
        [
          "item: blue folder",
          "\ncode: N19"
        ],
        [
          ".\nReturn exactly two plain-text lines and no Markdown. The first line must be `item: blue folder",
          "` and the second line must be `code: N19"
        ],
        [
          "c",
          "e, "
        ],
        [
          "h",
          "ad "
        ],
        [
          "p",
          " "
        ],
        [
          "v",
          "ant "
        ],
        [
          "ques",
          "tion"
        ],
        [
          "3LUIS",
          " moved to "
        ],
        [
          "8UMA",
          "."
        ],
        [
          "8UMA",
          ". Return exactly the final class PAVO-N220"
        ],
        [
          "8UMA",
          " must belong to."
        ],
        [
          "8UMA",
          ". PAVO-N220"
        ],
        [
          "5OMAR",
          ". Return exactly the final class PAVO-N220"
        ],
        [
          "5OMAR",
          " must belong to."
        ],
        [
          "11:45",
          " "
        ],
        [
          "Omar",
          "` and the second line must be `count: "
        ],
        [
          "8.\n",
          "Uma "
        ],
        [
          "Theo",
          "` and the second line must be `count: "
        ],
        [
          "\n\nDear ",
          "Jon"
        ],
        [
          "\n\nDear ",
          "Luis"
        ],
        [
          "6.\n",
          "Put the event labels in logical order. Return the labels in order without commentary: [N110"
        ],
        [
          "it is ",
          "not "
        ],
        [
          "of the ",
          "document "
        ],
        [
          "Please ",
          "ensure that "
        ],
        [
          ".\nReturn exactly two plain-text lines and no Markdown. The first line must be `name: ",
          "Omar` and the second line must be `count: "
        ],
        [
          ".\nReturn exactly two plain-text lines and no Markdown. The first line must be `name: ",
          "Theo` and the second line must be `count: "
        ],
        [
          ",\n\nI hope this message finds you well.\n\nI wanted to take a moment to express my sincere gratitude for your assistance with the ",
          "recent project. Your expertise and support were invaluable, and I am truly thankful for your help"
        ],
        [
          ".\n\nBest regards,\n",
          "Wei"
        ],
        [
          "1",
          "-03"
        ],
        [
          ", ",
          "pleas"
        ],
        [
          "N1",
          "705"
        ],
        [
          "reques",
          "t"
        ],
        [
          "1JON",
          "."
        ],
        [
          "1JON",
          " must belong to NORU-N220"
        ],
        [
          "3LUIS",
          "? Say that the answer cannot be known from the information given; do not invent an answer."
        ],
        [
          "4NORA",
          " must belong to the class NORU-N220"
        ],
        [
          "6PRIYA",
          ". Return exactly the final class PAVO-N220"
        ],
        [
          "6PRIYA",
          " must belong to."
        ],
        [
          "6PRIYA",
          ". PAVO-N220"
        ],
        [
          "assistan",
          "ce, "
        ],
        [
          " copies to the ",
          "quiet room"
        ],
        [
          "document ",
          "or "
        ],
        [
          "inform you that I have ",
          "updated "
        ],
        [
          "Could you please specify what type of items or activiti",
          "es you would like "
        ],
        [
          "0",
          "30"
        ],
        [
          "h",
          "av"
        ],
        [
          "and ",
          "current "
        ],
        [
          "to ",
          "support "
        ],
        [
          "you ",
          "sent "
        ],
        [
          "m ",
          "and current "
        ],
        [
          "6PRIYA",
          " must belong to the class NORU-N220"
        ],
        [
          "Draft a short, polite email from ",
          "Nora "
        ],
        [
          "Draft a short, polite email from ",
          "Wei "
        ],
        [
          "4.\n",
          "Draft a short, polite email from Nora "
        ],
        [
[...]
